{
  "version": "1.0",
  "truncation": null,
  "padding": null,
  "added_tokens": [
    {
      "id": 0,
      "content": "[PAD]",
      "single_word": false,
      "lstrip": false,
      "rstrip": false,
      "normalized": false,
      "special": true
    },
    {
      "id": 100,
      "content": "[UNK]",
      "single_word": false,
      "lstrip": false,
      "rstrip": false,
      "normalized": false,
      "special": true
    },
    {
      "id": 103,
      "content": "[MASK]",
      "single_word": false,
      "lstrip": false,
      "rstrip": false,
      "normalized": false,
      "special": true
    },
    {
      "id": 104,
      "content": "[CLS]",
      "single_word": false,
      "lstrip": false,
      "rstrip": false,
      "normalized": false,
      "special": true
    },
    {
      "id": 105,
      "content": "[SEP]",
      "single_word": false,
      "lstrip": false,
      "rstrip": false,
      "normalized": false,
      "special": true
    }
  ],
  "normalizer": {
    "type": "BertNormalizer",
    "clean_text": true,
    "handle_chinese_chars": true,
    "strip_accents": false,
    "lowercase": false
  },
  "pre_tokenizer": {
    "type": "BertPreTokenizer"
  },
  "post_processor": {
    "type": "TemplateProcessing",
    "single": [
      {
        "SpecialToken": {
          "id": "[CLS]",
          "type_id": 0
        }
      },
      {
        "Sequence": {
          "id": "A",
          "type_id": 0
        }
      },
      {
        "SpecialToken": {
          "id": "[SEP]",
          "type_id": 0
        }
      }
    ],
    "pair": [
      {
        "SpecialToken": {
          "id": "[CLS]",
          "type_id": 0
        }
      },
      {
        "Sequence": {
          "id": "A",
          "type_id": 0
        }
      },
      {
        "SpecialToken": {
          "id": "[SEP]",
          "type_id": 0
        }
      },
      {
        "Sequence": {
          "id": "B",
          "type_id": 1
        }
      },
      {
        "SpecialToken": {
          "id": "[SEP]",
          "type_id": 1
        }
      }
    ],
    "special_tokens": {
      "[CLS]": {
        "id": "[CLS]",
        "ids": [
          104
        ],
        "tokens": [
          "[CLS]"
        ]
      },
      "[SEP]": {
        "id": "[SEP]",
        "ids": [
          105
        ],
        "tokens": [
          "[SEP]"
        ]
      }
    }
  },
  "decoder": {
    "type": "WordPiece",
    "prefix": "##",
    "cleanup": true
  },
  "model": {
    "type": "WordPiece",
    "unk_token": "[UNK]",
    "continuing_subword_prefix": "##",
    "max_input_chars_per_word": 100,
    "vocab": {
      "[PAD]": 0,
      "[unused1]": 1,
      "[unused2]": 2,
      "[unused3]": 3,
      "[unused4]": 4,
      "[unused5]": 5,
      "[unused6]": 6,
      "[unused7]": 7,
      "[unused8]": 8,
      "[unused9]": 9,
      "[unused10]": 10,
      "[unused11]": 11,
      "[unused12]": 12,
      "[unused13]": 13,
      "[unused14]": 14,
      "[unused15]": 15,
      "[unused16]": 16,
      "[unused17]": 17,
      "[unused18]": 18,
      "[unused19]": 19,
      "[unused20]": 20,
      "[unused21]": 21,
      "[unused22]": 22,
      "[unused23]": 23,
      "[unused24]": 24,
      "[unused25]": 25,
      "[unused26]": 26,
      "[unused27]": 27,
      "[unused28]": 28,
      "[unused29]": 29,
      "[unused30]": 30,
      "[unused31]": 31,
      "[unused32]": 32,
      "[unused33]": 33,
      "[unused34]": 34,
      "[unused35]": 35,
      "[unused36]": 36,
      "[unused37]": 37,
      "[unused38]": 38,
      "[unused39]": 39,
      "[unused40]": 40,
      "[unused41]": 41,
      "[unused42]": 42,
      "[unused43]": 43,
      "[unused44]": 44,
      "[unused45]": 45,
      "[unused46]": 46,
      "[unused47]": 47,
      "[unused48]": 48,
      "[unused49]": 49,
      "[unused50]": 50,
      "[unused51]": 51,
      "[unused52]": 52,
      "[unused53]": 53,
      "[unused54]": 54,
      "[unused55]": 55,
      "[unused56]": 56,
      "[unused57]": 57,
      "[unused58]": 58,
      "[unused59]": 59,
      "[unused60]": 60,
      "[unused61]": 61,
      "[unused62]": 62,
      "[unused63]": 63,
      "[unused64]": 64,
      "[unused65]": 65,
      "[unused66]": 66,
      "[unused67]": 67,
      "[unused68]": 68,
      "[unused69]": 69,
      "[unused70]": 70,
      "[unused71]": 71,
      "[unused72]": 72,
      "[unused73]": 73,
      "[unused74]": 74,
      "[unused75]": 75,
      "[unused76]": 76,
      "[unused77]": 77,
      "[unused78]": 78,
      "[unused79]": 79,
      "[unused80]": 80,
      "[unused81]": 81,
      "[unused82]": 82,
      "[unused83]": 83,
      "[unused84]": 84,
      "[unused85]": 85,
      "[unused86]": 86,
      "[unused87]": 87,
      "[unused88]": 88,
      "[unused89]": 89,
      "[unused90]": 90,
      "[unused91]": 91,
      "[unused92]": 92,
      "[unused93]": 93,
      "[unused94]": 94,
      "[unused95]": 95,
      "[unused96]": 96,
      "[unused97]": 97,
      "[unused98]": 98,
      "[unused99]": 99,
      "[UNK]": 100,
      "<s>": 101,
      "</s>": 102,
      "[MASK]": 103,
      "[CLS]": 104,
      "[SEP]": 105,
      "<S>": 106,
      "<T>": 107,
      "!": 108,
      "\"": 109,
      "#": 110,
      "$": 111,
      "%": 112,
      "&": 113,
      "'": 114,
      "(": 115,
      ")": 116,
      "*": 117,
      "+": 118,
      ",": 119,
      "-": 120,
      ".": 121,
      "/": 122,
      "0": 123,
      "1": 124,
      "2": 125,
      "3": 126,
      "4": 127,
      "5": 128,
      "6": 129,
      "7": 130,
      "8": 131,
      "9": 132,
      ":": 133,
      ";": 134,
      "<": 135,
      "=": 136,
      ">": 137,
      "?": 138,
      "@": 139,
      "A": 140,
      "B": 141,
      "C": 142,
      "D": 143,
      "E": 144,
      "F": 145,
      "G": 146,
      "H": 147,
      "I": 148,
      "J": 149,
      "K": 150,
      "L": 151,
      "M": 152,
      "N": 153,
      "O": 154,
      "P": 155,
      "Q": 156,
      "R": 157,
      "S": 158,
      "T": 159,
      "U": 160,
      "V": 161,
      "W": 162,
      "X": 163,
      "Y": 164,
      "Z": 165,
      "[": 166,
      "\\": 167,
      "]": 168,
      "^": 169,
      "_": 170,
      "`": 171,
      "a": 172,
      "b": 173,
      "c": 174,
      "d": 175,
      "e": 176,
      "f": 177,
      "g": 178,
      "h": 179,
      "i": 180,
      "j": 181,
      "k": 182,
      "l": 183,
      "m": 184,
      "n": 185,
      "o": 186,
      "p": 187,
      "q": 188,
      "r": 189,
      "s": 190,
      "t": 191,
      "u": 192,
      "v": 193,
      "w": 194,
      "x": 195,
      "y": 196,
      "z": 197,
      "{": 198,
      "|": 199,
      "}": 200,
      "~": 201,
      " ": 202,
      "£": 203,
      "¤": 204,
      "¥": 205,
      "§": 206,
      "«": 207,
      "°": 208,
      "±": 209,
      "²": 210,
      "·": 211,
      "»": 212,
      "½": 213,
      "À": 214,
      "Á": 215,
      "É": 216,
      "×": 217,
      "à": 218,
      "á": 219,
      "â": 220,
      "ã": 221,
      "ä": 222,
      "å": 223,
      "æ": 224,
      "ç": 225,
      "è": 226,
      "é": 227,
      "ê": 228,
      "ë": 229,
      "í": 230,
      "ñ": 231,
      "ó": 232,
      "ô": 233,
      "ö": 234,
      "÷": 235,
      "ø": 236,
      "ú": 237,
      "ü": 238,
      "ā": 239,
      "ć": 240,
      "ī": 241,
      "ı": 242,
      "ł": 243,
      "ō": 244,
      "š": 245,
      "ū": 246,
      "ə": 247,
      "ˈ": 248,
      "́": 249,
      "̡": 250,
      "α": 251,
      "β": 252,
      "γ": 253,
      "ε": 254,
      "θ": 255,
      "ι": 256,
      "κ": 257,
      "λ": 258,
      "μ": 259,
      "ν": 260,
      "ο": 261,
      "π": 262,
      "ρ": 263,
      "ς": 264,
      "σ": 265,
      "τ": 266,
      "С": 267,
      "а": 268,
      "б": 269,
      "в": 270,
      "г": 271,
      "д": 272,
      "е": 273,
      "з": 274,
      "и": 275,
      "й": 276,
      "к": 277,
      "л": 278,
      "м": 279,
      "н": 280,
      "о": 281,
      "п": 282,
      "р": 283,
      "с": 284,
      "т": 285,
      "у": 286,
      "ч": 287,
      "ы": 288,
      "ь": 289,
      "я": 290,
      "א": 291,
      "ו": 292,
      "י": 293,
      "،": 294,
      "ؑ": 295,
      "ؒ": 296,
      "ؓ": 297,
      "ؔ": 298,
      "؛": 299,
      "؟": 300,
      "ء": 301,
      "آ": 302,
      "أ": 303,
      "ؤ": 304,
      "إ": 305,
      "ئ": 306,
      "ا": 307,
      "ب": 308,
      "ة": 309,
      "ت": 310,
      "ث": 311,
      "ج": 312,
      "ح": 313,
      "خ": 314,
      "د": 315,
      "ذ": 316,
      "ر": 317,
      "ز": 318,
      "س": 319,
      "ش": 320,
      "ص": 321,
      "ض": 322,
      "ط": 323,
      "ظ": 324,
      "ع": 325,
      "غ": 326,
      "ـ": 327,
      "ف": 328,
      "ق": 329,
      "ك": 330,
      "ل": 331,
      "م": 332,
      "ن": 333,
      "ه": 334,
      "و": 335,
      "ى": 336,
      "ي": 337,
      "ً": 338,
      "ٌ": 339,
      "ٍ": 340,
      "َ": 341,
      "ُ": 342,
      "ِ": 343,
      "ّ": 344,
      "ْ": 345,
      "ٓ": 346,
      "ٔ": 347,
      "ٕ": 348,
      "ٖ": 349,
      "ٗ": 350,
      "ٚ": 351,
      "ٛ": 352,
      "٠": 353,
      "١": 354,
      "٢": 355,
      "ٮ": 356,
      "ٰ": 357,
      "ٱ": 358,
      "ٲ": 359,
      "ٹ": 360,
      "ٺ": 361,
      "ٻ": 362,
      "ٽ": 363,
      "پ": 364,
      "ٿ": 365,
      "ڀ": 366,
      "ڃ": 367,
      "ڄ": 368,
      "چ": 369,
      "ڇ": 370,
      "ڈ": 371,
      "ڊ": 372,
      "ڌ": 373,
      "ڍ": 374,
      "ڏ": 375,
      "ڑ": 376,
      "ژ": 377,
      "ڙ": 378,
      "ڦ": 379,
      "ک": 380,
      "ڪ": 381,
      "گ": 382,
      "ڱ": 383,
      "ڳ": 384,
      "ں": 385,
      "ڻ": 386,
      "ھ": 387,
      "ہ": 388,
      "ۂ": 389,
      "ۃ": 390,
      "ۄ": 391,
      "ۅ": 392,
      "ۆ": 393,
      "ی": 394,
      "ۍ": 395,
      "ے": 396,
      "ۓ": 397,
      "۔": 398,
      "ۡ": 399,
      "۪": 400,
      "۬": 401,
      "۰": 402,
      "۱": 403,
      "۲": 404,
      "۳": 405,
      "۴": 406,
      "۵": 407,
      "۶": 408,
      "۷": 409,
      "۸": 410,
      "۹": 411,
      "۽": 412,
      "۾": 413,
      "ँ": 414,
      "ं": 415,
      "ः": 416,
      "अ": 417,
      "आ": 418,
      "इ": 419,
      "ई": 420,
      "उ": 421,
      "ऊ": 422,
      "ऋ": 423,
      "ऍ": 424,
      "ऎ": 425,
      "ए": 426,
      "ऐ": 427,
      "ऑ": 428,
      "ओ": 429,
      "औ": 430,
      "क": 431,
      "ख": 432,
      "ग": 433,
      "घ": 434,
      "ङ": 435,
      "च": 436,
      "छ": 437,
      "ज": 438,
      "झ": 439,
      "ञ": 440,
      "ट": 441,
      "ठ": 442,
      "ड": 443,
      "ढ": 444,
      "ण": 445,
      "त": 446,
      "थ": 447,
      "द": 448,
      "ध": 449,
      "न": 450,
      "प": 451,
      "फ": 452,
      "ब": 453,
      "भ": 454,
      "म": 455,
      "य": 456,
      "र": 457,
      "ऱ": 458,
      "ल": 459,
      "ळ": 460,
      "व": 461,
      "श": 462,
      "ष": 463,
      "स": 464,
      "ह": 465,
      "़": 466,
      "ऽ": 467,
      "ा": 468,
      "ि": 469,
      "ी": 470,
      "ु": 471,
      "ू": 472,
      "ृ": 473,
      "ॄ": 474,
      "ॅ": 475,
      "ॆ": 476,
      "े": 477,
      "ै": 478,
      "ॉ": 479,
      "ॊ": 480,
      "ो": 481,
      "ौ": 482,
      "्": 483,
      "ॐ": 484,
      "॒": 485,
      "क़": 486,
      "ख़": 487,
      "ज़": 488,
      "ड़": 489,
      "ढ़": 490,
      "फ़": 491,
      "।": 492,
      "॥": 493,
      "०": 494,
      "१": 495,
      "२": 496,
      "३": 497,
      "४": 498,
      "५": 499,
      "६": 500,
      "७": 501,
      "८": 502,
      "९": 503,
      "॰": 504,
      "ॲ": 505,
      "ঁ": 506,
      "ং": 507,
      "ঃ": 508,
      "অ": 509,
      "আ": 510,
      "ই": 511,
      "ঈ": 512,
      "উ": 513,
      "ঊ": 514,
      "ঋ": 515,
      "এ": 516,
      "ঐ": 517,
      "ও": 518,
      "ঔ": 519,
      "ক": 520,
      "খ": 521,
      "গ": 522,
      "ঘ": 523,
      "ঙ": 524,
      "চ": 525,
      "ছ": 526,
      "জ": 527,
      "ঝ": 528,
      "ঞ": 529,
      "ট": 530,
      "ঠ": 531,
      "ড": 532,
      "ঢ": 533,
      "ণ": 534,
      "ত": 535,
      "থ": 536,
      "দ": 537,
      "ধ": 538,
      "ন": 539,
      "প": 540,
      "ফ": 541,
      "ব": 542,
      "ভ": 543,
      "ম": 544,
      "য": 545,
      "র": 546,
      "ল": 547,
      "শ": 548,
      "ষ": 549,
      "স": 550,
      "হ": 551,
      "়": 552,
      "া": 553,
      "ি": 554,
      "ী": 555,
      "ু": 556,
      "ূ": 557,
      "ৃ": 558,
      "ে": 559,
      "ৈ": 560,
      "ো": 561,
      "ৌ": 562,
      "্": 563,
      "ৎ": 564,
      "ৗ": 565,
      "ড়": 566,
      "য়": 567,
      "০": 568,
      "১": 569,
      "২": 570,
      "৩": 571,
      "৪": 572,
      "৫": 573,
      "৬": 574,
      "৭": 575,
      "৮": 576,
      "৯": 577,
      "ৰ": 578,
      "ৱ": 579,
      "৷": 580,
      "ਂ": 581,
      "ਅ": 582,
      "ਆ": 583,
      "ਇ": 584,
      "ਈ": 585,
      "ਉ": 586,
      "ਊ": 587,
      "ਏ": 588,
      "ਐ": 589,
      "ਓ": 590,
      "ਔ": 591,
      "ਕ": 592,
      "ਖ": 593,
      "ਗ": 594,
      "ਘ": 595,
      "ਚ": 596,
      "ਛ": 597,
      "ਜ": 598,
      "ਝ": 599,
      "ਟ": 600,
      "ਠ": 601,
      "ਡ": 602,
      "ਢ": 603,
      "ਣ": 604,
      "ਤ": 605,
      "ਥ": 606,
      "ਦ": 607,
      "ਧ": 608,
      "ਨ": 609,
      "ਪ": 610,
      "ਫ": 611,
      "ਬ": 612,
      "ਭ": 613,
      "ਮ": 614,
      "ਯ": 615,
      "ਰ": 616,
      "ਲ": 617,
      "ਵ": 618,
      "ਸ਼": 619,
      "ਸ": 620,
      "ਹ": 621,
      "਼": 622,
      "ਾ": 623,
      "ਿ": 624,
      "ੀ": 625,
      "ੁ": 626,
      "ੂ": 627,
      "ੇ": 628,
      "ੈ": 629,
      "ੋ": 630,
      "ੌ": 631,
      "੍": 632,
      "ਜ਼": 633,
      "ੜ": 634,
      "ਫ਼": 635,
      "੦": 636,
      "੧": 637,
      "੨": 638,
      "੩": 639,
      "੪": 640,
      "੫": 641,
      "੮": 642,
      "੯": 643,
      "ੰ": 644,
      "ੱ": 645,
      "ੲ": 646,
      "ੳ": 647,
      "ઁ": 648,
      "ં": 649,
      "ઃ": 650,
      "અ": 651,
      "આ": 652,
      "ઇ": 653,
      "ઈ": 654,
      "ઉ": 655,
      "ઊ": 656,
      "ઋ": 657,
      "ઍ": 658,
      "એ": 659,
      "ઐ": 660,
      "ઑ": 661,
      "ઓ": 662,
      "ઔ": 663,
      "ક": 664,
      "ખ": 665,
      "ગ": 666,
      "ઘ": 667,
      "ચ": 668,
      "છ": 669,
      "જ": 670,
      "ઝ": 671,
      "ઞ": 672,
      "ટ": 673,
      "ઠ": 674,
      "ડ": 675,
      "ઢ": 676,
      "ણ": 677,
      "ત": 678,
      "થ": 679,
      "દ": 680,
      "ધ": 681,
      "ન": 682,
      "પ": 683,
      "ફ": 684,
      "બ": 685,
      "ભ": 686,
      "મ": 687,
      "ય": 688,
      "ર": 689,
      "લ": 690,
      "ળ": 691,
      "વ": 692,
      "શ": 693,
      "ષ": 694,
      "સ": 695,
      "હ": 696,
      "઼": 697,
      "ા": 698,
      "િ": 699,
      "ી": 700,
      "ુ": 701,
      "ૂ": 702,
      "ૃ": 703,
      "ૅ": 704,
      "ે": 705,
      "ૈ": 706,
      "ૉ": 707,
      "ો": 708,
      "ૌ": 709,
      "્": 710,
      "૤": 711,
      "૦": 712,
      "૧": 713,
      "૨": 714,
      "૩": 715,
      "૪": 716,
      "૫": 717,
      "૬": 718,
      "૭": 719,
      "૮": 720,
      "૯": 721,
      "ଁ": 722,
      "ଂ": 723,
      "ଃ": 724,
      "ଅ": 725,
      "ଆ": 726,
      "ଇ": 727,
      "ଈ": 728,
      "ଉ": 729,
      "ଋ": 730,
      "ଏ": 731,
      "ଐ": 732,
      "ଓ": 733,
      "ଔ": 734,
      "କ": 735,
      "ଖ": 736,
      "ଗ": 737,
      "ଘ": 738,
      "ଙ": 739,
      "ଚ": 740,
      "ଛ": 741,
      "ଜ": 742,
      "ଝ": 743,
      "ଞ": 744,
      "ଟ": 745,
      "ଠ": 746,
      "ଡ": 747,
      "ଢ": 748,
      "ଣ": 749,
      "ତ": 750,
      "ଥ": 751,
      "ଦ": 752,
      "ଧ": 753,
      "ନ": 754,
      "ପ": 755,
      "ଫ": 756,
      "ବ": 757,
      "ଭ": 758,
      "ମ": 759,
      "ଯ": 760,
      "ର": 761,
      "ଲ": 762,
      "ଳ": 763,
      "ଶ": 764,
      "ଷ": 765,
      "ସ": 766,
      "ହ": 767,
      "଼": 768,
      "ା": 769,
      "ି": 770,
      "ୀ": 771,
      "ୁ": 772,
      "ୂ": 773,
      "ୃ": 774,
      "େ": 775,
      "ୈ": 776,
      "ୋ": 777,
      "ୌ": 778,
      "୍": 779,
      "ଡ଼": 780,
      "ୟ": 781,
      "୤": 782,
      "୦": 783,
      "୧": 784,
      "୨": 785,
      "୩": 786,
      "୪": 787,
      "୫": 788,
      "୬": 789,
      "୭": 790,
      "୮": 791,
      "୯": 792,
      "ୱ": 793,
      "ஃ": 794,
      "அ": 795,
      "ஆ": 796,
      "இ": 797,
      "ஈ": 798,
      "உ": 799,
      "ஊ": 800,
      "எ": 801,
      "ஏ": 802,
      "ஐ": 803,
      "ஒ": 804,
      "ஓ": 805,
      "க": 806,
      "ங": 807,
      "ச": 808,
      "ஜ": 809,
      "ஞ": 810,
      "ட": 811,
      "ண": 812,
      "த": 813,
      "ந": 814,
      "ன": 815,
      "ப": 816,
      "ம": 817,
      "ய": 818,
      "ர": 819,
      "ற": 820,
      "ல": 821,
      "ள": 822,
      "ழ": 823,
      "வ": 824,
      "ஷ": 825,
      "ஸ": 826,
      "ஹ": 827,
      "ா": 828,
      "ி": 829,
      "ீ": 830,
      "ு": 831,
      "ூ": 832,
      "ெ": 833,
      "ே": 834,
      "ை": 835,
      "ொ": 836,
      "ோ": 837,
      "ௌ": 838,
      "்": 839,
      "ం": 840,
      "ః": 841,
      "అ": 842,
      "ఆ": 843,
      "ఇ": 844,
      "ఈ": 845,
      "ఉ": 846,
      "ఊ": 847,
      "ఋ": 848,
      "ఎ": 849,
      "ఏ": 850,
      "ఐ": 851,
      "ఒ": 852,
      "ఓ": 853,
      "ఔ": 854,
      "క": 855,
      "ఖ": 856,
      "గ": 857,
      "ఘ": 858,
      "చ": 859,
      "ఛ": 860,
      "జ": 861,
      "ఝ": 862,
      "ఞ": 863,
      "ట": 864,
      "ఠ": 865,
      "డ": 866,
      "ఢ": 867,
      "ణ": 868,
      "త": 869,
      "థ": 870,
      "ద": 871,
      "ధ": 872,
      "న": 873,
      "ప": 874,
      "ఫ": 875,
      "బ": 876,
      "భ": 877,
      "మ": 878,
      "య": 879,
      "ర": 880,
      "ఱ": 881,
      "ల": 882,
      "ళ": 883,
      "వ": 884,
      "శ": 885,
      "ష": 886,
      "స": 887,
      "హ": 888,
      "ా": 889,
      "ి": 890,
      "ీ": 891,
      "ు": 892,
      "ూ": 893,
      "ృ": 894,
      "ె": 895,
      "ే": 896,
      "ై": 897,
      "ొ": 898,
      "ో": 899,
      "ౌ": 900,
      "్": 901,
      "ಂ": 902,
      "ಃ": 903,
      "ಅ": 904,
      "ಆ": 905,
      "ಇ": 906,
      "ಈ": 907,
      "ಉ": 908,
      "ಊ": 909,
      "ಋ": 910,
      "ಎ": 911,
      "ಏ": 912,
      "ಐ": 913,
      "ಒ": 914,
      "ಓ": 915,
      "ಔ": 916,
      "ಕ": 917,
      "ಖ": 918,
      "ಗ": 919,
      "ಘ": 920,
      "ಚ": 921,
      "ಛ": 922,
      "ಜ": 923,
      "ಝ": 924,
      "ಞ": 925,
      "ಟ": 926,
      "ಠ": 927,
      "ಡ": 928,
      "ಢ": 929,
      "ಣ": 930,
      "ತ": 931,
      "ಥ": 932,
      "ದ": 933,
      "ಧ": 934,
      "ನ": 935,
      "ಪ": 936,
      "ಫ": 937,
      "ಬ": 938,
      "ಭ": 939,
      "ಮ": 940,
      "ಯ": 941,
      "ರ": 942,
      "ಲ": 943,
      "ಳ": 944,
      "ವ": 945,
      "ಶ": 946,
      "ಷ": 947,
      "ಸ": 948,
      "ಹ": 949,
      "಼": 950,
      "ಾ": 951,
      "ಿ": 952,
      "ೀ": 953,
      "ು": 954,
      "ೂ": 955,
      "ೃ": 956,
      "ೆ": 957,
      "ೇ": 958,
      "ೈ": 959,
      "ೊ": 960,
      "ೋ": 961,
      "ೌ": 962,
      "್": 963,
      "ೕ": 964,
      "೦": 965,
      "೧": 966,
      "೨": 967,
      "೩": 968,
      "೪": 969,
      "೫": 970,
      "೬": 971,
      "೭": 972,
      "೮": 973,
      "೯": 974,
      "ം": 975,
      "ഃ": 976,
      "അ": 977,
      "ആ": 978,
      "ഇ": 979,
      "ഈ": 980,
      "ഉ": 981,
      "ഊ": 982,
      "ഋ": 983,
      "എ": 984,
      "ഏ": 985,
      "ഐ": 986,
      "ഒ": 987,
      "ഓ": 988,
      "ഔ": 989,
      "ക": 990,
      "ഖ": 991,
      "ഗ": 992,
      "ഘ": 993,
      "ങ": 994,
      "ച": 995,
      "ഛ": 996,
      "ജ": 997,
      "ഞ": 998,
      "ട": 999,
      "ഠ": 1000,
      "ഡ": 1001,
      "ഢ": 1002,
      "ണ": 1003,
      "ത": 1004,
      "ഥ": 1005,
      "ദ": 1006,
      "ധ": 1007,
      "ന": 1008,
      "പ": 1009,
      "ഫ": 1010,
      "ബ": 1011,
      "ഭ": 1012,
      "മ": 1013,
      "യ": 1014,
      "ര": 1015,
      "റ": 1016,
      "ല": 1017,
      "ള": 1018,
      "ഴ": 1019,
      "വ": 1020,
      "ശ": 1021,
      "ഷ": 1022,
      "സ": 1023,
      "ഹ": 1024,
      "ാ": 1025,
      "ി": 1026,
      "ീ": 1027,
      "ു": 1028,
      "ൂ": 1029,
      "ൃ": 1030,
      "െ": 1031,
      "േ": 1032,
      "ൈ": 1033,
      "ൊ": 1034,
      "ോ": 1035,
      "ൌ": 1036,
      "്": 1037,
      "ൗ": 1038,
      "ൺ": 1039,
      "ൻ": 1040,
      "ർ": 1041,
      "ൽ": 1042,
      "ൾ": 1043,
      "ൿ": 1044,
      "་": 1045,
      " ": 1046,
      "–": 1047,
      "—": 1048,
      "‘": 1049,
      "’": 1050,
      "‚": 1051,
      "“": 1052,
      "”": 1053,
      "†": 1054,
      "•": 1055,
      "…": 1056,
      " ": 1057,
      "′": 1058,
      "″": 1059,
      "€": 1060,
      "₹": 1061,
      "↑": 1062,
      "→": 1063,
      "−": 1064,
      "●": 1065,
      "中": 1066,
      "大": 1067,
      "天": 1068,
      "彩": 1069,
      "ﭘ": 1070,
      "ﮐ": 1071,
      "ﮟ": 1072,
      "ﮧ": 1073,
      "ﮨ": 1074,
      "ﮯ": 1075,
      "ﯽ": 1076,
      "ﯾ": 1077,
      "ﯿ": 1078,
      "ﷲ": 1079,
      "ﷺ": 1080,
      "ﺍ": 1081,
      "ﺎ": 1082,
      "ﺑ": 1083,
      "ﺗ": 1084,
      "ﺘ": 1085,
      "ﺟ": 1086,
      "ﺩ": 1087,
      "ﺪ": 1088,
      "ﺭ": 1089,
      "ﺮ": 1090,
      "ﺳ": 1091,
      "ﻋ": 1092,
      "ﻟ": 1093,
      "ﻠ": 1094,
      "ﻣ": 1095,
      "ﻤ": 1096,
      "ﻥ": 1097,
      "ﻦ": 1098,
      "ﻧ": 1099,
      "ﻨ": 1100,
      "ﻫ": 1101,
      "ﻭ": 1102,
      "ﻮ": 1103,
      "ﻲ": 1104,
      "ﻳ": 1105,
      "ﻴ": 1106,
      "�": 1107,
      "the": 1108,
      "of": 1109,
      "के": 1110,
      "and": 1111,
      "in": 1112,
      "to": 1113,
      "में": 1114,
      "है": 1115,
      "کے": 1116,
      "की": 1117,
      "میں": 1118,
      "છે": 1119,
      "کی": 1120,
      "is": 1121,
      "ہے": 1122,
      "और": 1123,
      "से": 1124,
      "को": 1125,
      "का": 1126,
      "एक": 1127,
      "جي": 1128,
      "The": 1129,
      "اور": 1130,
      "##s": 1131,
      "ਦੇ": 1132,
      "زمرہ": 1133,
      "for": 1134,
      "ਹੈ": 1135,
      "کا": 1136,
      "جو": 1137,
      "سے": 1138,
      "on": 1139,
      "was": 1140,
      "श्रेणी": 1141,
      "that": 1142,
      "నుండి": 1143,
      "కి": 1144,
      "हैं": 1145,
      "અને": 1146,
      "with": 1147,
      "এবং": 1148,
      "10": 1149,
      "ਵਿੱਚ": 1150,
      "ಮತ್ತು": 1151,
      "ਅਤੇ": 1152,
      "##को": 1153,
      "पर": 1154,
      "आहे": 1155,
      "by": 1156,
      "he": 1157,
      "ਦੀ": 1158,
      "ke": 1159,
      "as": 1160,
      "پر": 1161,
      "हो": 1162,
      "ఉన్నాయి": 1163,
      "or": 1164,
      "या": 1165,
      "మీ": 1166,
      "হয়": 1167,
      "اس": 1168,
      "ने": 1169,
      "वर्ग": 1170,
      "from": 1171,
      "గ్రామం": 1172,
      "Category": 1173,
      "ఉంది": 1174,
      "பகுப்பு": 1175,
      "at": 1176,
      "এই": 1177,
      "ਦਾ": 1178,
      "भी": 1179,
      "దూరంలో": 1180,
      "করে": 1181,
      "##ের": 1182,
      "ایک": 1183,
      "main": 1184,
      "کو": 1185,
      "বিষয়শ্রেণী": 1186,
      "कि": 1187,
      "are": 1188,
      "##मा": 1189,
      "ਨੂੰ": 1190,
      "##ৰ": 1191,
      "##a": 1192,
      "##ে": 1193,
      "ही": 1194,
      "نے": 1195,
      "आणि": 1196,
      "it": 1197,
      "लिए": 1198,
      "##ं": 1199,
      "be": 1200,
      "ഒരു": 1201,
      "آهي": 1202,
      "மற்றும்": 1203,
      "##ी": 1204,
      "##র": 1205,
      "##i": 1206,
      "has": 1207,
      "ان": 1208,
      "ہیں": 1209,
      "kii": 1210,
      "గ్రామంలో": 1211,
      "ஒரு": 1212,
      "##e": 1213,
      "വർഗ്ഗം": 1214,
      "##ः": 1215,
      "##े": 1216,
      "তিনি": 1217,
      "##ा": 1218,
      "किया": 1219,
      "##ના": 1220,
      "আৰু": 1221,
      "this": 1222,
      "##માં": 1223,
      "থেকে": 1224,
      "رجوع": 1225,
      "have": 1226,
      "##का": 1227,
      "इस": 1228,
      "একটি": 1229,
      "مکرر": 1230,
      "##ની": 1231,
      "his": 1232,
      "यह": 1233,
      "##ले": 1234,
      "not": 1235,
      "کي": 1236,
      "##ப்": 1237,
      "an": 1238,
      "तथा": 1239,
      "##க்": 1240,
      "তার": 1241,
      "you": 1242,
      "था": 1243,
      "করা": 1244,
      "করেন": 1245,
      "এর": 1246,
      "##ن": 1247,
      "ਸੀ": 1248,
      "thumb": 1249,
      "कर": 1250,
      "సౌకర్యం": 1251,
      "એક": 1252,
      "हे": 1253,
      "नहीं": 1254,
      "ਤੋਂ": 1255,
      "ਇੱਕ": 1256,
      "se": 1257,
      "गया": 1258,
      "کہ": 1259,
      "શ્રેણી": 1260,
      "पनि": 1261,
      "ਹਨ": 1262,
      "##ର": 1263,
      "కేంద్రం": 1264,
      "In": 1265,
      "will": 1266,
      "આવેલા": 1267,
      "also": 1268,
      "ਤੇ": 1269,
      "సమీప": 1270,
      "இந்த": 1271,
      "ਨੇ": 1272,
      "तो": 1273,
      "##n": 1274,
      "यो": 1275,
      "##ને": 1276,
      "সালে": 1277,
      "ko": 1278,
      "واقع": 1279,
      "##ی": 1280,
      "جات": 1281,
      "તેમ": 1282,
      "साथ": 1283,
      "ਵਿਚ": 1284,
      "जो": 1285,
      "یہ": 1286,
      "హెక్టార్లు": 1287,
      "জন্য": 1288,
      "حوالہ": 1289,
      "##r": 1290,
      "ଶ୍ରେଣୀ": 1291,
      "करने": 1292,
      "بھی": 1293,
      "تي": 1294,
      "भारतीय": 1295,
      "##த்": 1296,
      "hai": 1297,
      "شہر": 1298,
      "which": 1299,
      "भारत": 1300,
      "##ত": 1301,
      "were": 1302,
      "##न": 1303,
      "ଏହି": 1304,
      "##ରେ": 1305,
      "ਇਸ": 1306,
      "##లో": 1307,
      "എന്ന": 1308,
      "భూమి": 1309,
      "##கள்": 1310,
      "kaa": 1311,
      "ਨਾਲ": 1312,
      "##কে": 1313,
      "##t": 1314,
      "کان": 1315,
      "ಒಂದು": 1316,
      "##लाई": 1317,
      "थियो": 1318,
      "होते": 1319,
      "##ي": 1320,
      "કે": 1321,
      "##ದ": 1322,
      "##o": 1323,
      "کیا": 1324,
      "##ों": 1325,
      "کر": 1326,
      "##er": 1327,
      "सन्दर्भ": 1328,
      "ਸ਼੍ਰੇਣੀ": 1329,
      "वर्गः": 1330,
      "##া": 1331,
      "##ا": 1332,
      "বা": 1333,
      "##ம்": 1334,
      "होता": 1335,
      "##ಗಳು": 1336,
      "right": 1337,
      "ਲਈ": 1338,
      "##d": 1339,
      "##र": 1340,
      "who": 1341,
      "مزید": 1342,
      "##्": 1343,
      "can": 1344,
      "سان": 1345,
      "It": 1346,
      "one": 1347,
      "متحدہ": 1348,
      "their": 1349,
      "हा": 1350,
      "He": 1351,
      "been": 1352,
      "यस": 1353,
      "##l": 1354,
      "પણ": 1355,
      "##म्": 1356,
      "##ो": 1357,
      "मा": 1358,
      "ته": 1359,
      "ਇਹ": 1360,
      "کاؤنٹی": 1361,
      "సంఖ్య": 1362,
      "but": 1363,
      "##નો": 1364,
      "रूप": 1365,
      "دیکھیے": 1366,
      "जाता": 1367,
      "par": 1368,
      "ગામમાં": 1369,
      "आहेत": 1370,
      "##ing": 1371,
      "##ই": 1372,
      "##च्या": 1373,
      "जन्म": 1374,
      "all": 1375,
      "فہرست": 1376,
      "না": 1377,
      "पुनर्निर्देशन": 1378,
      "अपने": 1379,
      "12": 1380,
      "ریاستہائے": 1381,
      "20": 1382,
      "માટે": 1383,
      "##स्य": 1384,
      "had": 1385,
      "ते": 1386,
      "बाद": 1387,
      "تھا": 1388,
      "ਵੀ": 1389,
      "द्वारा": 1390,
      "ଏକ": 1391,
      "ne": 1392,
      "వైద్య": 1393,
      "இது": 1394,
      "جا": 1395,
      "ki": 1396,
      "##त": 1397,
      "ద్వారా": 1398,
      "పైబడిన": 1399,
      "##ಯ": 1400,
      "آهن": 1401,
      "##ಗಳ": 1402,
      "##ો": 1403,
      "##ি": 1404,
      "15": 1405,
      "ખેતી": 1406,
      "##ক": 1407,
      "என்ற": 1408,
      "time": 1409,
      "যে": 1410,
      "##u": 1411,
      "##y": 1412,
      "भएको": 1413,
      "##و": 1414,
      "মধ্যে": 1415,
      "##ੀ": 1416,
      "కూడా": 1417,
      "##ச்": 1418,
      "थे": 1419,
      "આવે": 1420,
      "ప్రభుత్వ": 1421,
      "এক": 1422,
      "وہ": 1423,
      "زمرو": 1424,
      "2011": 1425,
      "ஆம்": 1426,
      "your": 1427,
      "they": 1428,
      "پاکستان": 1429,
      "first": 1430,
      "هو": 1431,
      "##on": 1432,
      "કરવામાં": 1433,
      "పాఠశాల": 1434,
      "என்று": 1435,
      "##ਾਂ": 1436,
      "ସେ": 1437,
      "तक": 1438,
      "people": 1439,
      "ছিল": 1440,
      "ભાગમાં": 1441,
      "about": 1442,
      "هن": 1443,
      "more": 1444,
      "छन्": 1445,
      "సౌకర్యాలు": 1446,
      "दिया": 1447,
      "000": 1448,
      "नाम": 1449,
      "కళాశాల": 1450,
      "##m": 1451,
      "11": 1452,
      "તે": 1453,
      "جس": 1454,
      "ڪري": 1455,
      "ಎಂದು": 1456,
      "ہو": 1457,
      "##નું": 1458,
      "امریکا": 1459,
      "జిల్లా": 1460,
      "ek": 1461,
      "##ন": 1462,
      "थी": 1463,
      "##हरू": 1464,
      "राज्य": 1465,
      "به": 1466,
      "ಹಾಗೂ": 1467,
      "##യും": 1468,
      "##ला": 1469,
      "होती": 1470,
      "##ಗಳನ್ನು": 1471,
      "ਕੀਤਾ": 1472,
      "थिए": 1473,
      "##ल": 1474,
      "This": 1475,
      "ਕਿ": 1476,
      "her": 1477,
      "##ও": 1478,
      "अन्य": 1479,
      "##चे": 1480,
      "its": 1481,
      "30": 1482,
      "##ed": 1483,
      "##થી": 1484,
      "உள்ள": 1485,
      "said": 1486,
      "لیے": 1487,
      "##स": 1488,
      "##ہ": 1489,
      "ਉਸ": 1490,
      "হিসেবে": 1491,
      "সাথে": 1492,
      "विकास": 1493,
      "تھے": 1494,
      "గ్రామానికి": 1495,
      "যায়": 1496,
      "##ী": 1497,
      "##ಲ್ಲಿ": 1498,
      "तर": 1499,
      "एवं": 1500,
      "હતી": 1501,
      "ਗਿਆ": 1502,
      "वह": 1503,
      "ਉਹ": 1504,
      "काम": 1505,
      "##وں": 1506,
      "ಅಥವಾ": 1507,
      "कुछ": 1508,
      "ఒక": 1509,
      "അവലംബം": 1510,
      "वा": 1511,
      "نہیں": 1512,
      "ٿي": 1513,
      "वर्ष": 1514,
      "other": 1515,
      "##ವನ್ನು": 1516,
      "بعد": 1517,
      "પર": 1518,
      "সালের": 1519,
      "इति": 1520,
      "सन्": 1521,
      "##चा": 1522,
      "two": 1523,
      "##ਾ": 1524,
      "లేదు": 1525,
      "##ી": 1526,
      "##k": 1527,
      "ஆகும்": 1528,
      "18": 1529,
      "##ने": 1530,
      "কৰা": 1531,
      "com": 1532,
      "up": 1533,
      "କରିଥିଲେ": 1534,
      "bhi": 1535,
      "প্রথম": 1536,
      "14": 1537,
      "##யும்": 1538,
      "कहा": 1539,
      "क्षेत्र": 1540,
      "समय": 1541,
      "করতে": 1542,
      "##କୁ": 1543,
      "రహదారి": 1544,
      "هڪ": 1545,
      "##बाट": 1546,
      "##ે": 1547,
      "തിരിച്ചുവിടുക": 1548,
      "آبادی": 1549,
      "there": 1550,
      "रहेको": 1551,
      "##টি": 1552,
      "ಇದು": 1553,
      "पूर्व": 1554,
      "लागि": 1555,
      "گیا": 1556,
      "16": 1557,
      "सरकार": 1558,
      "after": 1559,
      "##क": 1560,
      "##യുടെ": 1561,
      "हुए": 1562,
      "India": 1563,
      "##లు": 1564,
      "करते": 1565,
      "##ವು": 1566,
      "##an": 1567,
      "we": 1568,
      "कारण": 1569,
      "அல்லது": 1570,
      "تو": 1571,
      "New": 1572,
      "محمد": 1573,
      "یا": 1574,
      "મુખ્ય": 1575,
      "बाह्य": 1576,
      "##তে": 1577,
      "25": 1578,
      "प्रदेश": 1579,
      "नेपाली": 1580,
      "##ची": 1581,
      "##ता": 1582,
      "এটি": 1583,
      "بن": 1584,
      "##గా": 1585,
      "என்பது": 1586,
      "जा": 1587,
      "13": 1588,
      "ప్రైవేటు": 1589,
      "কৰে": 1590,
      "آباد": 1591,
      "ભારત": 1592,
      "de": 1593,
      "पुरस्कार": 1594,
      "##ر": 1595,
      "వర్గం": 1596,
      "ଏହା": 1597,
      "ছিলেন": 1598,
      "ஆண்டு": 1599,
      "જે": 1600,
      "వ్యవస్థ": 1601,
      "సరఫరా": 1602,
      "out": 1603,
      "when": 1604,
      "##ను": 1605,
      "##ಿಂದ": 1606,
      "سنڌ": 1607,
      "रहे": 1608,
      "હતા": 1609,
      "ଆଧାର": 1610,
      "##ം": 1611,
      "లో": 1612,
      "তথ্যসূত্র": 1613,
      "افراد": 1614,
      "##्स": 1615,
      "مان": 1616,
      "##च": 1617,
      "University": 1618,
      "இவர்": 1619,
      "உள்ளது": 1620,
      "अनुसार": 1621,
      "##ರ": 1622,
      "ਜੋ": 1623,
      "do": 1624,
      "હતો": 1625,
      "## ": 1626,
      "مشتمل": 1627,
      "மக்கள்": 1628,
      "முதல்": 1629,
      "ಅವರು": 1630,
      "दिन": 1631,
      "তাদের": 1632,
      "into": 1633,
      "مجموعی": 1634,
      "##h": 1635,
      "સાથે": 1636,
      "भने": 1637,
      "only": 1638,
      "##ಸ್": 1639,
      "2018": 1640,
      "سال": 1641,
      "##ನ": 1642,
      "આવેલું": 1643,
      "ವರ್ಗ": 1644,
      "no": 1645,
      "ప్రాథమిక": 1646,
      "ગામ": 1647,
      "हुआ": 1648,
      "تفصیلات": 1649,
      "ગુજરાત": 1650,
      "##களை": 1651,
      "17": 1652,
      "हुन्छ": 1653,
      "இந்திய": 1654,
      "##ಗೆ": 1655,
      "నీరు": 1656,
      "বিভিন্ন": 1657,
      "##al": 1658,
      "##ि": 1659,
      "so": 1660,
      "કરી": 1661,
      "ஊராட்சி": 1662,
      "હતું": 1663,
      "गर्ने": 1664,
      "मध्ये": 1665,
      "new": 1666,
      "जाते": 1667,
      "मराठी": 1668,
      "যা": 1669,
      "ਜਾਂਦਾ": 1670,
      "इसके": 1671,
      "left": 1672,
      "وقت": 1673,
      "ଏବଂ": 1674,
      "19": 1675,
      "##ા": 1676,
      "2008": 1677,
      "would": 1678,
      "কিন্তু": 1679,
      "उत्तर": 1680,
      "रहा": 1681,
      "##ଙ୍କ": 1682,
      "प्रमुख": 1683,
      "ضلع": 1684,
      "2010": 1685,
      "ٿو": 1686,
      "ਕੀਤੀ": 1687,
      "लेकिन": 1688,
      "अस्ति": 1689,
      "2007": 1690,
      "##ly": 1691,
      "अधिक": 1692,
      "2014": 1693,
      "होने": 1694,
      "இருந்து": 1695,
      "আছে": 1696,
      "ఆరోగ్య": 1697,
      "విద్యా": 1698,
      "##ಕ್ಕೆ": 1699,
      "than": 1700,
      "##س": 1701,
      "किसी": 1702,
      "##സ്": 1703,
      "them": 1704,
      "some": 1705,
      "পৰা": 1706,
      "సామాజిక": 1707,
      "##ل": 1708,
      "2009": 1709,
      "રાજ્યના": 1710,
      "liye": 1711,
      "ڪيو": 1712,
      "like": 1713,
      "பல": 1714,
      "##म": 1715,
      "http": 1716,
      "##ல்": 1717,
      "জন্ম": 1718,
      "अपनी": 1719,
      "থাকে": 1720,
      "દેશના": 1721,
      "પશ્ચિમ": 1722,
      "ٹاؤن": 1723,
      "ये": 1724,
      "my": 1725,
      "2006": 1726,
      "##യിൽ": 1727,
      "उन्होंने": 1728,
      "હોય": 1729,
      "केले": 1730,
      "లోపు": 1731,
      "மேற்கோள்கள்": 1732,
      "वाले": 1733,
      "পর": 1734,
      "if": 1735,
      "ਸਿੰਘ": 1736,
      "طور": 1737,
      "হয়ে": 1738,
      "##য়": 1739,
      "असे": 1740,
      "year": 1741,
      "kar": 1742,
      "जब": 1743,
      "##ء": 1744,
      "24": 1745,
      "पहले": 1746,
      "गई": 1747,
      "क्रिकेट": 1748,
      "خان": 1749,
      "over": 1750,
      "آپ": 1751,
      "لاءِ": 1752,
      "ਕੇ": 1753,
      "2016": 1754,
      "જેવી": 1755,
      "##ون": 1756,
      "वे": 1757,
      "મુખ્યત્વે": 1758,
      "21": 1759,
      "years": 1760,
      "என": 1761,
      "##ക്ക്": 1762,
      "प्राप्त": 1763,
      "50": 1764,
      "করার": 1765,
      "भाग": 1766,
      "પ્રાથમિક": 1767,
      "प्रकार": 1768,
      "##யின்": 1769,
      "भाषा": 1770,
      "અન્ય": 1771,
      "يا": 1772,
      "then": 1773,
      "ಎಂಬ": 1774,
      "ਹਵਾਲੇ": 1775,
      "उत्तराखण्ड": 1776,
      "ਦੀਆਂ": 1777,
      "દ્વારા": 1778,
      "ويو": 1779,
      "2012": 1780,
      "मुख्य": 1781,
      "##ൽ": 1782,
      "2013": 1783,
      "##es": 1784,
      "कई": 1785,
      "##দের": 1786,
      "him": 1787,
      "##ା": 1788,
      "கோயில்": 1789,
      "गए": 1790,
      "ગુજરાતનાં": 1791,
      "হবে": 1792,
      "##ात": 1793,
      "ਹੀ": 1794,
      "नेपाल": 1795,
      "ആണ്": 1796,
      "શાળા": 1797,
      "اپنے": 1798,
      "##ು": 1799,
      "2015": 1800,
      "www": 1801,
      "તાલુકો": 1802,
      "নাম": 1803,
      "آھي": 1804,
      "##ت": 1805,
      "such": 1806,
      "ମଧ୍ୟ": 1807,
      "References": 1808,
      "একজন": 1809,
      "ગામો": 1810,
      "साहित्य": 1811,
      "American": 1812,
      "many": 1813,
      "येथे": 1814,
      "गर्न": 1815,
      "کرنے": 1816,
      "hi": 1817,
      "our": 1818,
      "চলচ্চিত্র": 1819,
      "மேலும்": 1820,
      "महिला": 1821,
      "جنهن": 1822,
      "##୍": 1823,
      "##ही": 1824,
      "ఉన్న": 1825,
      "नाही": 1826,
      "film": 1827,
      "##కు": 1828,
      "ଲେଉଟାଣି": 1829,
      "100": 1830,
      "ഇത്": 1831,
      "તરીકે": 1832,
      "22": 1833,
      "شپ": 1834,
      "પશુપાલન": 1835,
      "ગામના": 1836,
      "##ाः": 1837,
      "ಮೇಲೆ": 1838,
      "कोई": 1839,
      "आप": 1840,
      "ପାଇଁ": 1841,
      "جاتا": 1842,
      "##স": 1843,
      "##து": 1844,
      "गरेको": 1845,
      "আর": 1846,
      "##ল": 1847,
      "ਕਰਨ": 1848,
      "अनेक": 1849,
      "2017": 1850,
      "ہی": 1851,
      "تھی": 1852,
      "2004": 1853,
      "కింది": 1854,
      "तीन": 1855,
      "उनके": 1856,
      "ہوئے": 1857,
      "বছর": 1858,
      "మరియు": 1859,
      "ಅವರ": 1860,
      "देश": 1861,
      "دیا": 1862,
      "रूपमा": 1863,
      "ખેતમજૂરી": 1864,
      "##யில்": 1865,
      "she": 1866,
      "करता": 1867,
      "me": 1868,
      "##ো": 1869,
      "##ے": 1870,
      "ನಲ್ಲಿ": 1871,
      "made": 1872,
      "##తో": 1873,
      "শুরু": 1874,
      "बहुत": 1875,
      "##ని": 1876,
      "ساتھ": 1877,
      "হল": 1878,
      "அவர்": 1879,
      "આંગણવાડી": 1880,
      "ਜਾਂ": 1881,
      "सकता": 1882,
      "align": 1883,
      "তেওঁ": 1884,
      "2005": 1885,
      "ہونے": 1886,
      "تک": 1887,
      "اللہ": 1888,
      "##ன்": 1889,
      "والے": 1890,
      "##ನ್ನು": 1891,
      "વ્યવસાય": 1892,
      "কিছু": 1893,
      "પંચાયતઘર": 1894,
      "##க்கு": 1895,
      "##मध्ये": 1896,
      "2001": 1897,
      "रही": 1898,
      "##களில்": 1899,
      "##ar": 1900,
      "ડેરી": 1901,
      "##ाच्या": 1902,
      "##களின்": 1903,
      "##யை": 1904,
      "ఇది": 1905,
      "इतिहास": 1906,
      "राजा": 1907,
      "##એ": 1908,
      "any": 1909,
      "লাভ": 1910,
      "हुन्": 1911,
      "निर्माण": 1912,
      "अब": 1913,
      "جن": 1914,
      "પ્રાપ્ય": 1915,
      "प्रयोग": 1916,
      "केली": 1917,
      "કરે": 1918,
      "হন": 1919,
      "जीवन": 1920,
      "##ੇ": 1921,
      "work": 1922,
      "അദ്ദേഹം": 1923,
      "##te": 1924,
      "نہ": 1925,
      "ho": 1926,
      "23": 1927,
      "##ರು": 1928,
      "आदि": 1929,
      "ప్రధాన": 1930,
      "त्यांनी": 1931,
      "સવલતો": 1932,
      "##ల": 1933,
      "جون": 1934,
      "कम": 1935,
      "most": 1936,
      "લોકોનો": 1937,
      "being": 1938,
      "বলে": 1939,
      "दो": 1940,
      "##ത്": 1941,
      "##ya": 1942,
      "राष्ट्रीय": 1943,
      "તાલુકામાં": 1944,
      "রয়েছে": 1945,
      "use": 1946,
      "##ൻ": 1947,
      "used": 1948,
      "स्थित": 1949,
      "na": 1950,
      "জাতীয়": 1951,
      "চনত": 1952,
      "तरह": 1953,
      "१०": 1954,
      "سندس": 1955,
      "ਪਿੰਡ": 1956,
      "सबसे": 1957,
      "लोग": 1958,
      "these": 1959,
      "शहर": 1960,
      "જિલ્લામાં": 1961,
      "ਨਹੀਂ": 1962,
      "ಆದರೆ": 1963,
      "علاقہ": 1964,
      "হয়েছে": 1965,
      "United": 1966,
      "পর্যন্ত": 1967,
      "जिले": 1968,
      "##കൾ": 1969,
      "இல்": 1970,
      "##य": 1971,
      "জন": 1972,
      "বাংলাদেশ": 1973,
      "इन": 1974,
      "वर्षे": 1975,
      "उपलब्ध": 1976,
      "day": 1977,
      "بھارت": 1978,
      "दक्षिण": 1979,
      "তারা": 1980,
      "26": 1981,
      "गरिएको": 1982,
      "National": 1983,
      "ਹੋ": 1984,
      "##ઓ": 1985,
      "نام": 1986,
      "نه": 1987,
      "ചെയ്തു": 1988,
      "ਜਿਸ": 1989,
      "म्हणून": 1990,
      "विश्व": 1991,
      "ತನ್ನ": 1992,
      "World": 1993,
      "यांनी": 1994,
      "سطح": 1995,
      "সেই": 1996,
      "##ಯನ್ನು": 1997,
      "28": 1998,
      "well": 1999,
      "சில": 2000,
      "may": 2001,
      "થયેલી": 2002,
      "##g": 2003,
      "നിന്ന്": 2004,
      "##ءَ": 2005,
      "##ाचे": 2006,
      "what": 2007,
      "आज": 2008,
      "च्या": 2009,
      "ਭਾਰਤੀ": 2010,
      "2000": 2011,
      "##ਨ": 2012,
      "##ରୁ": 2013,
      "حوالا": 2014,
      "through": 2015,
      "##ર": 2016,
      "தமிழ்": 2017,
      "##ി": 2018,
      "ਸਨ": 2019,
      "বাংলাদেশের": 2020,
      "श्री": 2021,
      "where": 2022,
      "ತಮ್ಮ": 2023,
      "పాటు": 2024,
      "जाने": 2025,
      "##ਆਂ": 2026,
      "##ਰ": 2027,
      "દૂધની": 2028,
      "ನಂತರ": 2029,
      "कार्य": 2030,
      "There": 2031,
      "On": 2032,
      "लोगों": 2033,
      "##വും": 2034,
      "போன்ற": 2035,
      "##ವಾಗಿ": 2036,
      "##ಗಳಲ್ಲಿ": 2037,
      "നിന്നും": 2038,
      "##na": 2039,
      "मधील": 2040,
      "government": 2041,
      "সময়": 2042,
      "என்னும்": 2043,
      "हुई": 2044,
      "उनले": 2045,
      "very": 2046,
      "শ্ৰেণী": 2047,
      "حاصل": 2048,
      "##ta": 2049,
      "आफ्नो": 2050,
      "nahin": 2051,
      "मार्च": 2052,
      "তাকে": 2053,
      "आसीत्": 2054,
      "হয়": 2055,
      "सभी": 2056,
      "##2": 2057,
      "##ం": 2058,
      "করেছেন": 2059,
      "ఎక్కువ": 2060,
      "ہوا": 2061,
      "between": 2062,
      "ਆਪਣੇ": 2063,
      "তবে": 2064,
      "##ِ": 2065,
      "##ં": 2066,
      "বাবে": 2067,
      "##ना": 2068,
      "ഏറ്റവും": 2069,
      "##ली": 2070,
      "થાય": 2071,
      "सदस्य": 2072,
      "27": 2073,
      "सामग्रीहरू": 2074,
      "##in": 2075,
      "##്": 2076,
      "##वर": 2077,
      "পারে": 2078,
      "ఇతర": 2079,
      "उन्हें": 2080,
      "പി": 2081,
      "নিয়ে": 2082,
      "40": 2083,
      "करना": 2084,
      "પાકની": 2085,
      "kiya": 2086,
      "શાકભાજીના": 2087,
      "name": 2088,
      "ਜਨਮ": 2089,
      "three": 2090,
      "Indian": 2091,
      "life": 2092,
      "जाती": 2093,
      "गरेका": 2094,
      "दी": 2095,
      "नेपालको": 2096,
      "सिंह": 2097,
      "##ز": 2098,
      "under": 2099,
      "ਕਰ": 2100,
      "ଅଟେ": 2101,
      "प्रसिद्ध": 2102,
      "কাজ": 2103,
      "రవాణా": 2104,
      "##कर": 2105,
      "দেখা": 2106,
      "स्थान": 2107,
      "కోడ్": 2108,
      "ਤੌਰ": 2109,
      "##ma": 2110,
      "during": 2111,
      "##ु": 2112,
      "వ్యవసాయ": 2113,
      "##യാണ്": 2114,
      "पुरुष": 2115,
      "ବା": 2116,
      "We": 2117,
      "नै": 2118,
      "##ाची": 2119,
      "सकते": 2120,
      "##us": 2121,
      "##م": 2122,
      "నీటి": 2123,
      "ਹੋਇਆ": 2124,
      "##le": 2125,
      "కంటే": 2126,
      "प्राचीन": 2127,
      "സി": 2128,
      "विभिन्न": 2129,
      "get": 2130,
      "##ஸ்": 2131,
      "बाहरी": 2132,
      "দিয়ে": 2133,
      "##ম": 2134,
      "##લ": 2135,
      "طرح": 2136,
      "उसके": 2137,
      "world": 2138,
      "పబ్లిక్": 2139,
      "జనగణన": 2140,
      "मे": 2141,
      "એવા": 2142,
      "##ाचा": 2143,
      "ye": 2144,
      "ஆனால்": 2145,
      "কথা": 2146,
      "##ट": 2147,
      "কোনো": 2148,
      "##ne": 2149,
      "வேண்டும்": 2150,
      "ਬਾਅਦ": 2151,
      "##வும்": 2152,
      "##ా": 2153,
      "##ୁ": 2154,
      "ఫోన్": 2155,
      "કુલ": 2156,
      "জেলার": 2157,
      "వినియోగం": 2158,
      "##1": 2159,
      "పథకం": 2160,
      "भवति": 2161,
      "जैसे": 2162,
      "बार": 2163,
      "మూలాలు": 2164,
      "साल": 2165,
      "ಮೂಲಕ": 2166,
      "ന്": 2167,
      "રીતે": 2168,
      "now": 2169,
      "প্রধান": 2170,
      "হতে": 2171,
      "బ్యాంకు": 2172,
      "میٹر": 2173,
      "2003": 2174,
      "##େ": 2175,
      "काही": 2176,
      "ਭਾਰਤ": 2177,
      "ପରେ": 2178,
      "సినిమా": 2179,
      "##್": 2180,
      "घर": 2181,
      "एव": 2182,
      "পুরস্কার": 2183,
      "কৰি": 2184,
      "केला": 2185,
      "state": 2186,
      "##ન": 2187,
      "बीच": 2188,
      "షెడ్యూల్డ్": 2189,
      "जून": 2190,
      "విద్యుత్": 2191,
      "should": 2192,
      "If": 2193,
      "##ರಲ್ಲಿ": 2194,
      "##ர்": 2195,
      "##களும்": 2196,
      "ఆసుపత్రి": 2197,
      "tha": 2198,
      "सेवा": 2199,
      "ভারতের": 2200,
      "ಹೆಚ್ಚು": 2201,
      "দক্ষিণ": 2202,
      "against": 2203,
      "কোন": 2204,
      "2002": 2205,
      "शिक्षा": 2206,
      "এটা": 2207,
      "##p": 2208,
      "వారం": 2209,
      "यसको": 2210,
      "##0": 2211,
      "झाले": 2212,
      "سنڌي": 2213,
      "29": 2214,
      "অনেক": 2215,
      "সঙ্গে": 2216,
      "उस": 2217,
      "##ch": 2218,
      "##ra": 2219,
      "مربع": 2220,
      "আছিল": 2221,
      "شامل": 2222,
      "गाँव": 2223,
      "team": 2224,
      "തന്നെ": 2225,
      "स्थापना": 2226,
      "లేని": 2227,
      "##ർ": 2228,
      "##્સ": 2229,
      "while": 2230,
      "बात": 2231,
      "##ई": 2232,
      "विशेष": 2233,
      "अपि": 2234,
      "##న": 2235,
      "##ವಾದ": 2236,
      "धर्म": 2237,
      "ହୁଏ": 2238,
      "എസ്": 2239,
      "##ع": 2240,
      "শিক্ষা": 2241,
      "இருக்கும்": 2242,
      "##ার": 2243,
      "##রা": 2244,
      "त्या": 2245,
      "फिल्म": 2246,
      "ਪੰਜਾਬੀ": 2247,
      "పోస్టాఫీసు": 2248,
      "number": 2249,
      "رقبہ": 2250,
      "ఆఫీసు": 2251,
      "యొక్క": 2252,
      "including": 2253,
      "जी": 2254,
      "डॉ": 2255,
      "##ି": 2256,
      "वि": 2257,
      "part": 2258,
      "ले": 2259,
      "বহিঃসংযোগ": 2260,
      "same": 2261,
      "ह्या": 2262,
      "সদস্য": 2263,
      "before": 2264,
      "پوءِ": 2265,
      "ڪرڻ": 2266,
      "make": 2267,
      "ক্রিকেট": 2268,
      "اپنی": 2269,
      "##3": 2270,
      "फिर": 2271,
      "অংশ": 2272,
      "کرتے": 2273,
      "ஆண்டில்": 2274,
      "بلندی": 2275,
      "کہا": 2276,
      "പ്രധാന": 2277,
      "କରି": 2278,
      "##या": 2279,
      "##at": 2280,
      "گئے": 2281,
      "मात्र": 2282,
      "వ్యవసాయం": 2283,
      "किंवा": 2284,
      "চনৰ": 2285,
      "##ti": 2286,
      "कड़ियाँ": 2287,
      "ਗਈ": 2288,
      "মাধ্যমে": 2289,
      "వాణిజ్య": 2290,
      "##हरु": 2291,
      "us": 2292,
      "##am": 2293,
      "style": 2294,
      "ఉత్పత్తి": 2295,
      "##ेन": 2296,
      "उनी": 2297,
      "उनकी": 2298,
      "##ೆ": 2299,
      "ব্যবহার": 2300,
      "31": 2301,
      "আরও": 2302,
      "##৷": 2303,
      "दिल्ली": 2304,
      "ଏହାର": 2305,
      "ڪئي": 2306,
      "બાજરી": 2307,
      "ਸਾਲ": 2308,
      "ਇਕ": 2309,
      "उसे": 2310,
      "ଭାରତୀୟ": 2311,
      "அந்த": 2312,
      "##ୀ": 2313,
      "മുതൽ": 2314,
      "हुने": 2315,
      "लिया": 2316,
      "مقامات": 2317,
      "নতুন": 2318,
      "##ದಲ್ಲಿ": 2319,
      "just": 2320,
      "చెందిన": 2321,
      "வரை": 2322,
      "کیلومیٹر": 2323,
      "மூலம்": 2324,
      "তা": 2325,
      "استعمال": 2326,
      "##um": 2327,
      "सर्वे": 2328,
      "వైద్యశాల": 2329,
      "##ಿ": 2330,
      "గంటల": 2331,
      "বলেন": 2332,
      "পুনর্নির্দেশ": 2333,
      "தனது": 2334,
      "##ں": 2335,
      "ئي": 2336,
      "கொண்டு": 2337,
      "ଓଡ଼ିଆ": 2338,
      "அமைந்துள்ள": 2339,
      "হয়েছিল": 2340,
      "ਲੋਕ": 2341,
      "en": 2342,
      "دور": 2343,
      "নামে": 2344,
      "how": 2345,
      "karne": 2346,
      "##য়": 2347,
      "ہوتا": 2348,
      "उनको": 2349,
      "##కి": 2350,
      "கொண்ட": 2351,
      "place": 2352,
      "But": 2353,
      "பின்னர்": 2354,
      "হয়েছে": 2355,
      "kare": 2356,
      "گئی": 2357,
      "వనరుల": 2358,
      "എന്ന്": 2359,
      "قائم": 2360,
      "ਪੰਜਾਬ": 2361,
      "##த்தை": 2362,
      "##ून": 2363,
      "پنهنجي": 2364,
      "##তা": 2365,
      "##ும்": 2366,
      "You": 2367,
      "ఉన్నారు": 2368,
      "##ज": 2369,
      "کسی": 2370,
      "take": 2371,
      "police": 2372,
      "##ते": 2373,
      "ٿيو": 2374,
      "##ு": 2375,
      "தொகை": 2376,
      "मध्य": 2377,
      "તેઓ": 2378,
      "స్టేషన్": 2379,
      "असून": 2380,
      "family": 2381,
      "चार": 2382,
      "دو": 2383,
      "##ू": 2384,
      "زیادہ": 2385,
      "ಕೆಲವು": 2386,
      "جب": 2387,
      "பி": 2388,
      "संदर्भ": 2389,
      "অবস্থিত": 2390,
      "English": 2391,
      "પૈકીના": 2392,
      "महाराष्ट्र": 2393,
      "States": 2394,
      "सर्वात": 2395,
      "They": 2396,
      "ഇന്ത്യൻ": 2397,
      "country": 2398,
      "यहाँ": 2399,
      "হচ্ছে": 2400,
      "బంజరు": 2401,
      "കെ": 2402,
      "After": 2403,
      "हम": 2404,
      "##ड": 2405,
      "অন্যান্য": 2406,
      "તાલુકાઓ": 2407,
      "લોકો": 2408,
      "area": 2409,
      "হৈছে": 2410,
      "വരെ": 2411,
      "way": 2412,
      "شخصیات": 2413,
      "مطابق": 2414,
      "known": 2415,
      "##ه": 2416,
      "##స్": 2417,
      "##യെ": 2418,
      "તેના": 2419,
      "দলের": 2420,
      "వ్యవసాయానికి": 2421,
      "शामिल": 2422,
      "రోడ్లు": 2423,
      "কৰিছিল": 2424,
      "##യിലെ": 2425,
      "மாவட்டம்": 2426,
      "because": 2427,
      "देखि": 2428,
      "واري": 2429,
      "##िक": 2430,
      "ਦੁਆਰਾ": 2431,
      "सामाजिक": 2432,
      "ব্যক্তি": 2433,
      "did": 2434,
      "##ia": 2435,
      "As": 2436,
      "1999": 2437,
      "എന്നീ": 2438,
      "ବର୍ଷ": 2439,
      "राष्ट्रिय": 2440,
      "links": 2441,
      "আন্তর্জাতিক": 2442,
      "ମସିହାରେ": 2443,
      "અથવા": 2444,
      "দুই": 2445,
      "வரலாறு": 2446,
      "આવી": 2447,
      "বেশি": 2448,
      "ভারতীয়": 2449,
      "মৃত্যু": 2450,
      "માં": 2451,
      "ਸਭ": 2452,
      "जनवरी": 2453,
      "ਹੁੰਦਾ": 2454,
      "see": 2455,
      "नदी": 2456,
      "ਦਿੱਤਾ": 2457,
      "##ni": 2458,
      "உள்ளன": 2459,
      "gaya": 2460,
      "##ਸ": 2461,
      "आधिकारिक": 2462,
      "मंदिर": 2463,
      "ఒకటి": 2464,
      "##हरूको": 2465,
      "భారత": 2466,
      "##ము": 2467,
      "দ্বারা": 2468,
      "ના": 2469,
      "இதன்": 2470,
      "કપાસ": 2471,
      "उच्च": 2472,
      "जिल्ला": 2473,
      "even": 2474,
      "എം": 2475,
      "ईसा": 2476,
      "ڪتاب": 2477,
      "সে": 2478,
      "दुवे": 2479,
      "##en": 2480,
      "##ان": 2481,
      "##ाने": 2482,
      "बारे": 2483,
      "ರಲ್ಲಿ": 2484,
      "رہے": 2485,
      "मी": 2486,
      "لیکن": 2487,
      "পরে": 2488,
      "ప్రకారం": 2489,
      "वाली": 2490,
      "ଜନ୍ମ": 2491,
      "شروع": 2492,
      "ਉੱਤੇ": 2493,
      "এখন": 2494,
      "could": 2495,
      "തന്റെ": 2496,
      "##د": 2497,
      "##4": 2498,
      "سب": 2499,
      "उपयोग": 2500,
      "both": 2501,
      "تائين": 2502,
      "मैं": 2503,
      "زبان": 2504,
      "அதன்": 2505,
      "ইয়াৰ": 2506,
      "सूची": 2507,
      "##ி": 2508,
      "موجود": 2509,
      "##िया": 2510,
      "called": 2511,
      "दोनों": 2512,
      "saath": 2513,
      "તા": 2514,
      "વધુ": 2515,
      "गावात": 2516,
      "طرف": 2517,
      "صدی": 2518,
      "ഓഫ്": 2519,
      "##ક": 2520,
      "ٿا": 2521,
      "ती": 2522,
      "ಆಫ್": 2523,
      "करून": 2524,
      "good": 2525,
      "##ण": 2526,
      "##ய": 2527,
      "மாவட்ட": 2528,
      "News": 2529,
      "##la": 2530,
      "નથી": 2531,
      "website": 2532,
      "60": 2533,
      "జనాభా": 2534,
      "মার্কিন": 2535,
      "اسلام": 2536,
      "എന്നാൽ": 2537,
      "इसे": 2538,
      "##b": 2539,
      "போது": 2540,
      "History": 2541,
      "##ಾ": 2542,
      "200px": 2543,
      "##த்தில்": 2544,
      "##ാ": 2545,
      "##री": 2546,
      "system": 2547,
      "भन्ने": 2548,
      "home": 2549,
      "##ନ": 2550,
      "ہوئی": 2551,
      "تمام": 2552,
      "जुलाई": 2553,
      "করেছিলেন": 2554,
      "born": 2555,
      "yah": 2556,
      "शुरू": 2557,
      "بہت": 2558,
      "उनका": 2559,
      "হৈছিল": 2560,
      "##व": 2561,
      "అని": 2562,
      "இரண்டு": 2563,
      "पास": 2564,
      "కోసం": 2565,
      "عام": 2566,
      "असते": 2567,
      "জেলা": 2568,
      "കണ്ണികൾ": 2569,
      "1998": 2570,
      "দ্য": 2571,
      "For": 2572,
      "Press": 2573,
      "வெளி": 2574,
      "##वा": 2575,
      "দল": 2576,
      "center": 2577,
      "##ک": 2578,
      "صوبہ": 2579,
      "ਪਰ": 2580,
      "করেছে": 2581,
      "झाला": 2582,
      "second": 2583,
      "##த்தின்": 2584,
      "ਹੋਰ": 2585,
      "##ਲ": 2586,
      "پاڪستان": 2587,
      "last": 2588,
      "जानकारी": 2589,
      "चित्रपट": 2590,
      "अलग": 2591,
      "those": 2592,
      "जनसङ्ख्या": 2593,
      "1995": 2594,
      "South": 2595,
      "کوئی": 2596,
      "##A": 2597,
      "##യ": 2598,
      "ਉਸਨੇ": 2599,
      "##ா": 2600,
      "लेखक": 2601,
      "کچھ": 2602,
      "External": 2603,
      "##ന്": 2604,
      "jo": 2605,
      "##ன": 2606,
      "##man": 2607,
      "water": 2608,
      "##S": 2609,
      "class": 2610,
      "ਬਹੁਤ": 2611,
      "पुलिस": 2612,
      "ऑफ": 2613,
      "அமைந்துள்ளது": 2614,
      "سو": 2615,
      "##०": 2616,
      "information": 2617,
      "ಎರಡು": 2618,
      "ଜଣେ": 2619,
      "##ನ್": 2620,
      "Minister": 2621,
      "तसेच": 2622,
      "International": 2623,
      "فرانس": 2624,
      "তথ্য": 2625,
      "শেষ": 2626,
      "দিকে": 2627,
      "اسے": 2628,
      "company": 2629,
      "संयुक्त": 2630,
      "##पुर": 2631,
      "विभाग": 2632,
      "1990": 2633,
      "She": 2634,
      "end": 2635,
      "city": 2636,
      "##ਕ": 2637,
      "తన": 2638,
      "प्रति": 2639,
      "مختلف": 2640,
      "حضرت": 2641,
      "صاحب": 2642,
      "##ाला": 2643,
      "##ங்கள்": 2644,
      "جيڪو": 2645,
      "ھن": 2646,
      "##ಿಗೆ": 2647,
      "प्रदान": 2648,
      "ইতিহাস": 2649,
      "long": 2650,
      "आले": 2651,
      "प्रकाशित": 2652,
      "డిగ్రీ": 2653,
      "##ील": 2654,
      "તેને": 2655,
      "York": 2656,
      "village": 2657,
      "انہوں": 2658,
      "##il": 2659,
      "ইউনিয়ন": 2660,
      "ਤੱਕ": 2661,
      "##5": 2662,
      "धेरै": 2663,
      "एउटा": 2664,
      "John": 2665,
      "2019": 2666,
      "##સ": 2667,
      "ലെ": 2668,
      "केही": 2669,
      "ଭାବରେ": 2670,
      "पश्चिम": 2671,
      "##ু": 2672,
      "based": 2673,
      "karte": 2674,
      "ଥିଲେ": 2675,
      "back": 2676,
      "##ke": 2677,
      "हुन": 2678,
      "ক্রিকেটার": 2679,
      "ઘઉં": 2680,
      "علی": 2681,
      "ہوائی": 2682,
      "হিসাবে": 2683,
      "समिति": 2684,
      "##களுக்கு": 2685,
      "##য়ে": 2686,
      "તેમણે": 2687,
      "अथवा": 2688,
      "##ित": 2689,
      "அது": 2690,
      "दौरान": 2691,
      "##ത്തിൽ": 2692,
      "رہائشی": 2693,
      "##ka": 2694,
      "गरे": 2695,
      "##िंग": 2696,
      "later": 2697,
      "##्य": 2698,
      "org": 2699,
      "लेकर": 2700,
      "উপর": 2701,
      "##লৈ": 2702,
      "##ു": 2703,
      "ಅನೇಕ": 2704,
      "##6": 2705,
      "संवत": 2706,
      "તેમના": 2707,
      "हिंदी": 2708,
      "1996": 2709,
      "টি": 2710,
      "अस्य": 2711,
      "উত্তর": 2712,
      "ଜାନୁଆରୀ": 2713,
      "इसका": 2714,
      "##ి": 2715,
      "##வை": 2716,
      "सामग्री": 2717,
      "هئا": 2718,
      "##മാണ്": 2719,
      "तहसील": 2720,
      "দ্বিতীয়": 2721,
      "##ات": 2722,
      "County": 2723,
      "दोन": 2724,
      "school": 2725,
      "প্রায়": 2726,
      "તેની": 2727,
      "much": 2728,
      "ਤਾਂ": 2729,
      "జాతీయ": 2730,
      "गरिन्छ": 2731,
      "यदि": 2732,
      "party": 2733,
      "ଅକ୍ଟୋବର": 2734,
      "##ai": 2735,
      "বিশেষ": 2736,
      "તો": 2737,
      "found": 2738,
      "اردو": 2739,
      "ଜୁଲାଇ": 2740,
      "ମାର୍ଚ୍ଚ": 2741,
      "गरी": 2742,
      "खेळाडू": 2743,
      "ଡିସେମ୍ବର": 2744,
      "संगीत": 2745,
      "संख्या": 2746,
      "पुनर्निदेशन": 2747,
      "प्रत्येक": 2748,
      "##c": 2749,
      "di": 2750,
      "क्या": 2751,
      "هئي": 2752,
      "কাছে": 2753,
      "पहिलो": 2754,
      "ریلوے": 2755,
      "జరుగుతోంది": 2756,
      "मुंबई": 2757,
      "தான்": 2758,
      "पार्टी": 2759,
      "##வின்": 2760,
      "लोकसभा": 2761,
      "शब्द": 2762,
      "know": 2763,
      "यांच्या": 2764,
      "రైల్వే": 2765,
      "తెలుగు": 2766,
      "होगा": 2767,
      "खेल": 2768,
      "##മായ": 2769,
      "नगर": 2770,
      "high": 2771,
      "इन्हें": 2772,
      "ସେପ୍ଟେମ୍ବର": 2773,
      "ಬಗ್ಗೆ": 2774,
      "ଜୁନ": 2775,
      "women": 2776,
      "At": 2777,
      "around": 2778,
      "هي": 2779,
      "নিয়ে": 2780,
      "चाहिए": 2781,
      "ତିଆରି": 2782,
      "ಮೊದಲ": 2783,
      "series": 2784,
      "म्हणजे": 2785,
      "century": 2786,
      "yaa": 2787,
      "ઉપયોગ": 2788,
      "##িক": 2789,
      "पू": 2790,
      "लगभग": 2791,
      "ಪ್ರಮುಖ": 2792,
      "##யாக": 2793,
      "ଡାଇନୋସର": 2794,
      "##7": 2795,
      "प्रथम": 2796,
      "دی": 2797,
      "पछि": 2798,
      "پہلے": 2799,
      "లు": 2800,
      "বাংলা": 2801,
      "School": 2802,
      "झाली": 2803,
      "each": 2804,
      "करण्यात": 2805,
      "कुनै": 2806,
      "ରୋଗ": 2807,
      "State": 2808,
      "##ती": 2809,
      "સૌથી": 2810,
      "ஆகிய": 2811,
      "##ಂತೆ": 2812,
      "वो": 2813,
      "##की": 2814,
      "1997": 2815,
      "##மாக": 2816,
      "ಇದನ್ನು": 2817,
      "सी": 2818,
      "May": 2819,
      "যার": 2820,
      "اهو": 2821,
      "فلم": 2822,
      "అభివృద్ధి": 2823,
      "सर्व": 2824,
      "ਆਪਣੀ": 2825,
      "સુધી": 2826,
      "ଅଧିକ": 2827,
      "##ட்": 2828,
      "రాష్ట్ర": 2829,
      "चलचित्र": 2830,
      "district": 2831,
      "हिन्दी": 2832,
      "தமிழ்நாடு": 2833,
      "ଅପ୍ରେଲ": 2834,
      "त्यांच्या": 2835,
      "ਰੂਪ": 2836,
      "શકે": 2837,
      "ओर": 2838,
      "500": 2839,
      "ତାଙ୍କ": 2840,
      "1980": 2841,
      "अप्रैल": 2842,
      "जिसमें": 2843,
      "অনুষ্ঠিত": 2844,
      "When": 2845,
      "وڃي": 2846,
      "இக்கோயில்": 2847,
      "ಅದರ": 2848,
      "##ಯಲ್ಲಿ": 2849,
      "200": 2850,
      "कमी": 2851,
      "##ै": 2852,
      "امریکی": 2853,
      "रहेका": 2854,
      "##z": 2855,
      "अध्यक्ष": 2856,
      "35": 2857,
      "ਉਨ੍ਹਾਂ": 2858,
      "پڻ": 2859,
      "انهن": 2860,
      "##8": 2861,
      "go": 2862,
      "വലിയ": 2863,
      "पानी": 2864,
      "என்றும்": 2865,
      "ದಿ": 2866,
      "became": 2867,
      "##नी": 2868,
      "तस्य": 2869,
      "अर्थ": 2870,
      "site": 2871,
      "लाख": 2872,
      "ಅದು": 2873,
      "حکومت": 2874,
      "##ಗಳಿಗೆ": 2875,
      "আমি": 2876,
      "१२": 2877,
      "##ांच्या": 2878,
      "man": 2879,
      "players": 2880,
      "साली": 2881,
      "देखें": 2882,
      "হৈ": 2883,
      "केंद्र": 2884,
      "வழிமாற்று": 2885,
      "তেওঁৰ": 2886,
      "मृत्यु": 2887,
      "جنگ": 2888,
      "బి": 2889,
      "four": 2890,
      "अवस्थित": 2891,
      "ಕನ್ನಡ": 2892,
      "कभी": 2893,
      "ਕੰਮ": 2894,
      "তালিকা": 2895,
      "जिला": 2896,
      "ಗಳು": 2897,
      "ജനിച്ചവർ": 2898,
      "District": 2899,
      "आर्थिक": 2900,
      "सः": 2901,
      "##ri": 2902,
      "लिङ्कहरू": 2903,
      "##्या": 2904,
      "सन्ति": 2905,
      "##द": 2906,
      "ಗೆ": 2907,
      "ভাষা": 2908,
      "भएका": 2909,
      "ఏడాది": 2910,
      "احمد": 2911,
      "come": 2912,
      "best": 2913,
      "मृत्यू": 2914,
      "సంస్థ": 2915,
      "تاریخ": 2916,
      "##ை": 2917,
      "இணைப்புகள்": 2918,
      "ھڪ": 2919,
      "##सँग": 2920,
      "##v": 2921,
      "പിന്നീട്": 2922,
      "case": 2923,
      "set": 2924,
      "پنجاب": 2925,
      "তৈরি": 2926,
      "ജില്ലയിലെ": 2927,
      "ಹಾಗು": 2928,
      "here": 2929,
      "लिये": 2930,
      "##प": 2931,
      "##ٹ": 2932,
      "ಇದರ": 2933,
      "different": 2934,
      "##ং": 2935,
      "బావులు": 2936,
      "जिल्लामा": 2937,
      "अमेरिका": 2938,
      "##9": 2939,
      "టి": 2940,
      "##ভাবে": 2941,
      "ಸುಮಾರು": 2942,
      "وفات": 2943,
      "জীবন": 2944,
      "##ങ്ങൾ": 2945,
      "त्यांना": 2946,
      "All": 2947,
      "ਕਿਸੇ": 2948,
      "house": 2949,
      "##C": 2950,
      "अपना": 2951,
      "నుంచి": 2952,
      "due": 2953,
      "No": 2954,
      "##മായി": 2955,
      "##வர்": 2956,
      "##ers": 2957,
      "जिल्लाको": 2958,
      "since": 2959,
      "समाज": 2960,
      "అందుతుంది": 2961,
      "முக்கிய": 2962,
      "पण": 2963,
      "British": 2964,
      "وجہ": 2965,
      "அவரது": 2966,
      "आधार": 2967,
      "மாவட்டத்தில்": 2968,
      "And": 2969,
      "##ುದು": 2970,
      "ਸਮੇਂ": 2971,
      "फुटबल": 2972,
      "1992": 2973,
      "##్": 2974,
      "भूमिका": 2975,
      "କରିବା": 2976,
      "ਵਾਲੇ": 2977,
      "मण्डल": 2978,
      "கட்டுரைகள்": 2979,
      "ശേഷം": 2980,
      "हर": 2981,
      "80": 2982,
      "அமைப்பு": 2983,
      "गाउँ": 2984,
      "سمندر": 2985,
      "kaha": 2986,
      "ফলে": 2987,
      "लोक": 2988,
      "without": 2989,
      "व्यक्ति": 2990,
      "অভিনয়": 2991,
      "इसी": 2992,
      "##ರುವ": 2993,
      "season": 2994,
      "1994": 2995,
      "উপজেলার": 2996,
      "കേരളത്തിലെ": 2997,
      "অন্যতম": 2998,
      "బస్సు": 2999,
      "own": 3000,
      "अंतरावर": 3001,
      "नेपालका": 3002,
      "##ଟି": 3003,
      "ڈیٹا": 3004,
      "1991": 3005,
      "ऐसे": 3006,
      "##ট": 3007,
      "పొడుగునా": 3008,
      "पुणे": 3009,
      "ঢাকা": 3010,
      "children": 3011,
      "##জ": 3012,
      "తిరిగి": 3013,
      "However": 3014,
      "##ന്റെ": 3015,
      "केवल": 3016,
      "##is": 3017,
      "##ത്തിന്റെ": 3018,
      "कुल": 3019,
      "প্রতি": 3020,
      "कार्यक्रम": 3021,
      "##da": 3022,
      "કારણે": 3023,
      "ప్రత్యేక": 3024,
      "##କ": 3025,
      "##ਂ": 3026,
      "संघ": 3027,
      "ربط": 3028,
      "##കളും": 3029,
      "September": 3030,
      "अन्तर्गत": 3031,
      "baad": 3032,
      "##ानि": 3033,
      "দিন": 3034,
      "ਜਾ": 3035,
      "കൂടുതൽ": 3036,
      "ਉਹਨਾਂ": 3037,
      "१५": 3038,
      "II": 3039,
      "March": 3040,
      "##மும்": 3041,
      "June": 3042,
      "एका": 3043,
      "அரசு": 3044,
      "सं": 3045,
      "October": 3046,
      "group": 3047,
      "##ನು": 3048,
      "नाव": 3049,
      "##ng": 3050,
      "old": 3051,
      "रोजी": 3052,
      "news": 3053,
      "##તા": 3054,
      "ISBN": 3055,
      "ਗਏ": 3056,
      "দেন": 3057,
      "भयो": 3058,
      "days": 3059,
      "यहां": 3060,
      "மிகவும்": 3061,
      "১০": 3062,
      "came": 3063,
      "বিদ্যালয়": 3064,
      "কারণে": 3065,
      "November": 3066,
      "ଅନୁସାରେ": 3067,
      "ଥିବା": 3068,
      "اسٹیشن": 3069,
      "1993": 3070,
      "July": 3071,
      "جائے": 3072,
      "ବାହାର": 3073,
      "ویکی": 3074,
      "ਵਜੋਂ": 3075,
      "पूर्ण": 3076,
      "اسی": 3077,
      "great": 3078,
      "आपको": 3079,
      "video": 3080,
      "##ौ": 3081,
      "युद्ध": 3082,
      "took": 3083,
      "അവർ": 3084,
      "public": 3085,
      "every": 3086,
      "ଓଡ଼ିଶା": 3087,
      "32": 3088,
      "अपूर्णलेखाः": 3089,
      "ve": 3090,
      "કરવા": 3091,
      "ਦੋ": 3092,
      "११": 3093,
      "##न्": 3094,
      "സ്": 3095,
      "##th": 3096,
      "کام": 3097,
      "ତାଙ୍କର": 3098,
      "##য়া": 3099,
      "held": 3100,
      "ସମୟରେ": 3101,
      "ऐसा": 3102,
      "book": 3103,
      "aap": 3104,
      "List": 3105,
      "স্থান": 3106,
      "সরকার": 3107,
      "hain": 3108,
      "सबै": 3109,
      "August": 3110,
      "##जी": 3111,
      "सितंबर": 3112,
      "##ha": 3113,
      "విధంగా": 3114,
      "started": 3115,
      "aa": 3116,
      "துடுப்பாட்டப்": 3117,
      "రెండు": 3118,
      "பெண்கள்": 3119,
      "தேசிய": 3120,
      "ଥିଲା": 3121,
      "45": 3122,
      "help": 3123,
      "ملک": 3124,
      "જેમાં": 3125,
      "घटना": 3126,
      "ಇತರ": 3127,
      "##ko": 3128,
      "२०": 3129,
      "##ದೆ": 3130,
      "https": 3131,
      "##னர்": 3132,
      "70": 3133,
      "given": 3134,
      "राजधानी": 3135,
      "কলেজ": 3136,
      "##ावर": 3137,
      "विज्ञान": 3138,
      "सरकारी": 3139,
      "அவர்கள்": 3140,
      "down": 3141,
      "کامنز": 3142,
      "तब": 3143,
      "પછી": 3144,
      "ઉત્તર": 3145,
      "शिक्षण": 3146,
      "দেখুন": 3147,
      "need": 3148,
      "नेपालमा": 3149,
      "game": 3150,
      "##்": 3151,
      "City": 3152,
      "روابط": 3153,
      "बिहार": 3154,
      "পরিচিত": 3155,
      "January": 3156,
      "মনে": 3157,
      "ଲୋକ": 3158,
      "বলা": 3159,
      "شاہ": 3160,
      "##ak": 3161,
      "जास्त": 3162,
      "پاکستانی": 3163,
      "1989": 3164,
      "صرف": 3165,
      "ایران": 3166,
      "##ಯು": 3167,
      "##ೂ": 3168,
      "still": 3169,
      "April": 3170,
      "पाकिस्तान": 3171,
      "off": 3172,
      "संस्था": 3173,
      "small": 3174,
      "সাধারণ": 3175,
      "##পুর": 3176,
      "আগে": 3177,
      "மூன்று": 3178,
      "##મ": 3179,
      "जुन": 3180,
      "व्यवस्था": 3181,
      "अगर": 3182,
      "பேரும்": 3183,
      "##ਿਆ": 3184,
      "London": 3185,
      "data": 3186,
      "today": 3187,
      "##ব": 3188,
      "جڏهن": 3189,
      "##ھ": 3190,
      "येथील": 3191,
      "##ਣ": 3192,
      "వివిధ": 3193,
      "தொகுதிக்கும்": 3194,
      "##hi": 3195,
      "ਕਈ": 3196,
      "ಶ್ರೀ": 3197,
      "ਕਿਹਾ": 3198,
      "ਹੋਣ": 3199,
      "free": 3200,
      "##সমূহ": 3201,
      "उत्पादन": 3202,
      "మాధ్యమిక": 3203,
      "பிறப்புகள்": 3204,
      "हजार": 3205,
      "क्योंकि": 3206,
      "असतात": 3207,
      "##ांनी": 3208,
      "जारी": 3209,
      "##ಕ": 3210,
      "পূর্ব": 3211,
      "ஆவார்": 3212,
      "##ଙ୍କୁ": 3213,
      "আমার": 3214,
      "##ಲ್": 3215,
      "കേരള": 3216,
      "##ు": 3217,
      "علم": 3218,
      "இந்து": 3219,
      "ചില": 3220,
      "until": 3221,
      "tak": 3222,
      "His": 3223,
      "হার": 3224,
      "North": 3225,
      "କରାଯାଏ": 3226,
      "ఆయన": 3227,
      "ମଧ୍ୟରେ": 3228,
      "दे": 3229,
      "भन्दा": 3230,
      "কম": 3231,
      "পালন": 3232,
      "செய்து": 3233,
      "ରହିଛି": 3234,
      "##re": 3235,
      "इतर": 3236,
      "करती": 3237,
      "thek": 3238,
      "करें": 3239,
      "language": 3240,
      "قسم": 3241,
      "رہا": 3242,
      "##ക്": 3243,
      "భూ": 3244,
      "જ્યારે": 3245,
      "অব": 3246,
      "ہم": 3247,
      "योजना": 3248,
      "##্": 3249,
      "கி": 3250,
      "புதிய": 3251,
      "گا": 3252,
      "হয়ে": 3253,
      "परिवार": 3254,
      "apane": 3255,
      "مقام": 3256,
      "যদিও": 3257,
      "نالو": 3258,
      "پھر": 3259,
      "صدر": 3260,
      "1984": 3261,
      "per": 3262,
      "ويندو": 3263,
      "పోషకాహార": 3264,
      "thi": 3265,
      "आपल्या": 3266,
      "જીરુ": 3267,
      "ઓફ": 3268,
      "कंपनी": 3269,
      "history": 3270,
      "##ge": 3271,
      "என்": 3272,
      "सार्वजनिक": 3273,
      "##ांची": 3274,
      "عمر": 3275,
      "text": 3276,
      "##मधील": 3277,
      "won": 3278,
      "হিচাপে": 3279,
      "बताया": 3280,
      "Tamil": 3281,
      "ஊராட்சித்": 3282,
      "بیرونی": 3283,
      "பெரிய": 3284,
      "ہر": 3285,
      "want": 3286,
      "উপজেলা": 3287,
      "అండ్": 3288,
      "بھارتی": 3289,
      "قرآن": 3290,
      "विचार": 3291,
      "देने": 3292,
      "संवत्": 3293,
      "diya": 3294,
      "ಹೆಚ್ಚಿನ": 3295,
      "બે": 3296,
      "అనే": 3297,
      "US": 3298,
      "One": 3299,
      "తరువాత": 3300,
      "che": 3301,
      "మండల": 3302,
      "##ीय": 3303,
      "સૌરાષ્ટ્ર": 3304,
      "##டன்": 3305,
      "அமெரிக்க": 3306,
      "பட்டியல்": 3307,
      "ei": 3308,
      "উচ্চ": 3309,
      "તથા": 3310,
      "इसमें": 3311,
      "released": 3312,
      "December": 3313,
      "चरित्रलेख": 3314,
      "सामने": 3315,
      "ഡി": 3316,
      "કર્યો": 3317,
      "evan": 3318,
      "##रा": 3319,
      "హెక్టార్లలో": 3320,
      "प्रकाशन": 3321,
      "power": 3322,
      "1970": 3323,
      "അമേരിക്കൻ": 3324,
      "પરંતુ": 3325,
      "সংখ্যা": 3326,
      "रुपमा": 3327,
      "ಅತ್ಯಂತ": 3328,
      "विश्वविद्यालय": 3329,
      "ప్రవహిస్తుంది": 3330,
      "धार्मिक": 3331,
      "टीम": 3332,
      "तयार": 3333,
      "##ಾಗ": 3334,
      "ഇവിടെ": 3335,
      "does": 3336,
      "তখন": 3337,
      "##ੋ": 3338,
      "rahe": 3339,
      "##ರ್": 3340,
      "ਹੋਏ": 3341,
      "கொண்டுள்ளது": 3342,
      "##ب": 3343,
      "والی": 3344,
      "ଅଭିନୟ": 3345,
      "service": 3346,
      "##ಟ್": 3347,
      "हाल": 3348,
      "ಭಾರತದ": 3349,
      "కాలువల": 3350,
      "War": 3351,
      "several": 3352,
      "##tu": 3353,
      "अमेरिकी": 3354,
      "మురుగునీరు": 3355,
      "going": 3356,
      "another": 3357,
      "چھُ": 3358,
      "సంఘం": 3359,
      "ની": 3360,
      "सह": 3361,
      "எஸ்": 3362,
      "विधानसभा": 3363,
      "ਕਰਦਾ": 3364,
      "##ത്തെ": 3365,
      "অসমীয়া": 3366,
      "বুলি": 3367,
      "1986": 3368,
      "75": 3369,
      "দেশের": 3370,
      "##வில்": 3371,
      "जिल्हा": 3372,
      "va": 3373,
      "##ांना": 3374,
      "1988": 3375,
      "body": 3376,
      "ఉప": 3377,
      "90": 3378,
      "##ীয়": 3379,
      "شهر": 3380,
      "విద్యుత్తు": 3381,
      "శిక్షణ": 3382,
      "కాగా": 3383,
      "College": 3384,
      "যেমন": 3385,
      "असलेल्या": 3386,
      "##গুলি": 3387,
      "خود": 3388,
      "##ਜ਼": 3389,
      "##ਤ": 3390,
      "ਹੋਈ": 3391,
      "آف": 3392,
      "অন্য": 3393,
      "##িত": 3394,
      "##ాలు": 3395,
      "તેમની": 3396,
      "মূল": 3397,
      "কি": 3398,
      "वाला": 3399,
      "##ಸಿ": 3400,
      "இருந்தது": 3401,
      "પ્રથમ": 3402,
      "কে": 3403,
      "کم": 3404,
      "ସହ": 3405,
      "خاص": 3406,
      "बना": 3407,
      "##টা": 3408,
      "نظر": 3409,
      "വളരെ": 3410,
      "online": 3411,
      "re": 3412,
      "آھن": 3413,
      "دوران": 3414,
      "ମୃତ୍ୟୁ": 3415,
      "top": 3416,
      "##یں": 3417,
      "सुरू": 3418,
      "चुनाव": 3419,
      "కుటుంబ": 3420,
      "ਜੀ": 3421,
      "उसकी": 3422,
      "kara": 3423,
      "एस": 3424,
      "next": 3425,
      "##্য": 3426,
      "బృందం": 3427,
      "২০১১": 3428,
      "గ్రామ": 3429,
      "दिसंबर": 3430,
      "रंग": 3431,
      "##లను": 3432,
      "क्षेत्रमा": 3433,
      "مارچ": 3434,
      "जीवनी": 3435,
      "ਜਦੋਂ": 3436,
      "1985": 3437,
      "samay": 3438,
      "##ഡ്": 3439,
      "पिता": 3440,
      "గణాంకాల": 3441,
      "राजनीतिक": 3442,
      "किए": 3443,
      "మగవారి": 3444,
      "hue": 3445,
      "సైన్స్": 3446,
      "##மான": 3447,
      "విస్తరించి": 3448,
      "રજકો": 3449,
      "امریکہ": 3450,
      "டி": 3451,
      "ହୋଇଥିଲା": 3452,
      "సమాచార": 3453,
      "##ए": 3454,
      "వృత్తి": 3455,
      "నమోదు": 3456,
      "এখানে": 3457,
      "कुमार": 3458,
      "பார்க்க": 3459,
      "ہوتی": 3460,
      "లైన్": 3461,
      "##ాన్ని": 3462,
      "എന്നും": 3463,
      "ભારતીય": 3464,
      "లోను": 3465,
      "1987": 3466,
      "ಸಾಮಾನ್ಯವಾಗಿ": 3467,
      "अशा": 3468,
      "کتاب": 3469,
      "జరుగుతుంది": 3470,
      "line": 3471,
      "महत्वपूर्ण": 3472,
      "##ڻ": 3473,
      "अलावा": 3474,
      "ಎಸ್": 3475,
      "আরো": 3476,
      "তাই": 3477,
      "എന്നിവ": 3478,
      "ఆరోగ్యం": 3479,
      "সব": 3480,
      "again": 3481,
      "ബി": 3482,
      "##वी": 3483,
      "League": 3484,
      "##ांचे": 3485,
      "ڪم": 3486,
      "కార్యకర్త": 3487,
      "समेत": 3488,
      "திரைப்படங்கள்": 3489,
      "भए": 3490,
      "##കളുടെ": 3491,
      "##ki": 3492,
      "যখন": 3493,
      "അത്": 3494,
      "അദ്ദേഹത്തിന്റെ": 3495,
      "బాలల": 3496,
      "సేవా": 3497,
      "media": 3498,
      "நான்": 3499,
      "आवश्यक": 3500,
      "आधारित": 3501,
      "ప్రాథమికోన్నత": 3502,
      "సహకార": 3503,
      "few": 3504,
      "ఆర్ట్స్": 3505,
      "డాక్టర్లు": 3506,
      "large": 3507,
      "సామాన్య": 3508,
      "ಸಹ": 3509,
      "##న్": 3510,
      "دے": 3511,
      "##ും": 3512,
      "పౌర": 3513,
      "اگر": 3514,
      "একই": 3515,
      "am": 3516,
      "మొదలైనవి": 3517,
      "१४": 3518,
      "പല": 3519,
      "People": 3520,
      "ਸ਼ੁਰੂ": 3521,
      "##याः": 3522,
      "ملڪ": 3523,
      "##ic": 3524,
      "music": 3525,
      "সাল": 3526,
      "ممالک": 3527,
      "##द्वारा": 3528,
      "अध्ययन": 3529,
      "অসমৰ": 3530,
      "##িং": 3531,
      "ఇంటర్నెట్": 3532,
      "కులాల": 3533,
      "కార్యాలయం": 3534,
      "##ത": 3535,
      "कृषि": 3536,
      "##ओं": 3537,
      "تصغیر": 3538,
      "మార్కెటింగ్": 3539,
      "कथा": 3540,
      "இதில்": 3541,
      "within": 3542,
      "An": 3543,
      "தன்": 3544,
      "ಹೊಸ": 3545,
      "సొసైటీ": 3546,
      "##li": 3547,
      "কারণ": 3548,
      "మొబైల్": 3549,
      "মতো": 3550,
      "##sh": 3551,
      "నిమిత్తం": 3552,
      "मन्दिर": 3553,
      "تہ": 3554,
      "ধরনের": 3555,
      "प्रवेश": 3556,
      "##२": 3557,
      "లొకేషన్": 3558,
      "কেন্দ্র": 3559,
      "##or": 3560,
      "జూనియర్": 3561,
      "তাঁর": 3562,
      "లాండ్": 3563,
      "સંદર્ભ": 3564,
      "ବିଧାନ": 3565,
      "##१": 3566,
      "వినోద": 3567,
      "ਰਾਜ": 3568,
      "काफी": 3569,
      "గ్రంథాలయం": 3570,
      "இங்கு": 3571,
      "##der": 3572,
      "తెగల": 3573,
      "సంక్షేమ": 3574,
      "ਸਾਹਿਤ": 3575,
      "స్వయం": 3576,
      "##ਮ": 3577,
      "गर्दै": 3578,
      "##കളിൽ": 3579,
      "##de": 3580,
      "##ئي": 3581,
      "ఔషధ": 3582,
      "పోషణ": 3583,
      "अतः": 3584,
      "भगवान": 3585,
      "पाने": 3586,
      "خلاف": 3587,
      "మైదానం": 3588,
      "विविध": 3589,
      "following": 3590,
      "आई": 3591,
      "যদি": 3592,
      "సహాయక": 3593,
      "सकती": 3594,
      "আমাদের": 3595,
      "இக்கோயிலில்": 3596,
      "عبد": 3597,
      "జనాభాతో": 3598,
      "गर्दछ": 3599,
      "##ਤਾ": 3600,
      "local": 3601,
      "##گ": 3602,
      "ହୋଇ": 3603,
      "કર્યું": 3604,
      "1982": 3605,
      "పారిశుధ్యం": 3606,
      "বড়": 3607,
      "పిన్": 3608,
      "জুন": 3609,
      "कांग्रेस": 3610,
      "சட்டமன்றத்": 3611,
      "##as": 3612,
      "ja": 3613,
      "ఆడవారి": 3614,
      "എന്നു": 3615,
      "ఆశా": 3616,
      "తాగు": 3617,
      "కేంద్రాలు": 3618,
      "సరఫరాల": 3619,
      "ஒன்று": 3620,
      "स्त्री": 3621,
      "జనన": 3622,
      "لفظ": 3623,
      "వాడీ": 3624,
      "అంగన్": 3625,
      "బ్యాంకింగు": 3626,
      "##গুলো": 3627,
      "##ത്തിന്": 3628,
      "located": 3629,
      "మార్కెటింగు": 3630,
      "ఇళ్లతో": 3631,
      "इसकी": 3632,
      "இவை": 3633,
      "दुई": 3634,
      "order": 3635,
      "सभा": 3636,
      "امام": 3637,
      "##ब": 3638,
      "సంత": 3639,
      "See": 3640,
      "भनिन्छ": 3641,
      "پاڻ": 3642,
      "ମନ୍ଦିର": 3643,
      "##़": 3644,
      "పోలింగ్": 3645,
      "President": 3646,
      "##ది": 3647,
      "തുടങ്ങിയ": 3648,
      "প্রাথমিক": 3649,
      "రీడింగ్": 3650,
      "জুলাই": 3651,
      "##ക്കും": 3652,
      "பெயர்": 3653,
      "অফ": 3654,
      "మొత్తం": 3655,
      "ಕಡಿಮೆ": 3656,
      "वेबसाइट": 3657,
      "হলে": 3658,
      "१६": 3659,
      "இருந்த": 3660,
      "bgcolor": 3661,
      "love": 3662,
      "శిశు": 3663,
      "show": 3664,
      "مگر": 3665,
      "koi": 3666,
      "ఆటో": 3667,
      "ఆటల": 3668,
      "important": 3669,
      "लगा": 3670,
      "become": 3671,
      "##ku": 3672,
      "അവരുടെ": 3673,
      "33": 3674,
      "पर्ने": 3675,
      "played": 3676,
      "स्थानीय": 3677,
      "ज्यादा": 3678,
      "عمل": 3679,
      "ଭାବେ": 3680,
      "post": 3681,
      "অবস্থান": 3682,
      "કરીને": 3683,
      "business": 3684,
      "##ur": 3685,
      "##க": 3686,
      "five": 3687,
      "எனும்": 3688,
      "పోస్ట్": 3689,
      "సంచార": 3690,
      "जाना": 3691,
      "दूसरे": 3692,
      "సబ్": 3693,
      "نومبر": 3694,
      "এমন": 3695,
      "مسلم": 3696,
      "ప్రత్యామ్నాయ": 3697,
      "ਹੁੰਦੀ": 3698,
      "جنھن": 3699,
      "members": 3700,
      "##di": 3701,
      "పశు": 3702,
      "మాతా": 3703,
      "karen": 3704,
      "മറ്റു": 3705,
      "गेले": 3706,
      "1983": 3707,
      "present": 3708,
      "अधिकार": 3709,
      "రూం": 3710,
      "বিধানসভা": 3711,
      "विद्यालय": 3712,
      "##७": 3713,
      "ଅନେକ": 3714,
      "##্স": 3715,
      "##kar": 3716,
      "പുറത്തേക്കുള്ള": 3717,
      "আল": 3718,
      "పారిశుధ్య": 3719,
      "ਜਾਂਦੀ": 3720,
      "ادب": 3721,
      "వార్తాపత్రిక": 3722,
      "300": 3723,
      "पूजा": 3724,
      "టెలిఫోన్": 3725,
      "students": 3726,
      "1971": 3727,
      "ખાતે": 3728,
      "ആയിരുന്നു": 3729,
      "సంరక్షణ": 3730,
      "##ंच्या": 3731,
      "ପ୍ରଥମ": 3732,
      "కొరియర్": 3733,
      "മികച്ച": 3734,
      "February": 3735,
      "تعلیم": 3736,
      "To": 3737,
      "సంపూర్ణ": 3738,
      "##ങ്ങളും": 3739,
      "##j": 3740,
      "আমরা": 3741,
      "ਪਹਿਲਾਂ": 3742,
      "మరణాల": 3743,
      "##३": 3744,
      "say": 3745,
      "early": 3746,
      "নদী": 3747,
      "అనియత": 3748,
      "ਨਾਮ": 3749,
      "According": 3750,
      "గా": 3751,
      "بات": 3752,
      "علي": 3753,
      "story": 3754,
      "বিজয়ী": 3755,
      "##ٽ": 3756,
      "దివ్యాంగుల": 3757,
      "हि": 3758,
      "یہاں": 3759,
      "ନାମ": 3760,
      "former": 3761,
      "##ئی": 3762,
      "चे": 3763,
      "आता": 3764,
      "కంకర": 3765,
      "ആദ്യ": 3766,
      "పాలీటెక్నిక్": 3767,
      "##ियों": 3768,
      "విత్తిన": 3769,
      "ਵੱਖ": 3770,
      "जिसे": 3771,
      "##ह": 3772,
      "నికరంగా": 3773,
      "دنیا": 3774,
      "##it": 3775,
      "##x": 3776,
      "ଆରମ୍ଭ": 3777,
      "##ਟ": 3778,
      "form": 3779,
      "##ವಾಗಿದೆ": 3780,
      "બાદ": 3781,
      "આવ્યું": 3782,
      "শহর": 3783,
      "##ங்களை": 3784,
      "various": 3785,
      "ત્યારે": 3786,
      "1977": 3787,
      "##५": 3788,
      "చేస్తున్నారు": 3789,
      "उन": 3790,
      "ਰਿਹਾ": 3791,
      "প্রকাশ": 3792,
      "using": 3793,
      "##ين": 3794,
      "పంపిణీ": 3795,
      "چوريو": 3796,
      "1960": 3797,
      "बौद्ध": 3798,
      "ਜੀਵਨ": 3799,
      "ভাৰতৰ": 3800,
      "##८": 3801,
      "মার্চ": 3802,
      "##ति": 3803,
      "सम्म": 3804,
      "##ग": 3805,
      "દક્ષિણ": 3806,
      "सफल": 3807,
      "गाव": 3808,
      "ਕੁਝ": 3809,
      "اب": 3810,
      "గృహావసరాల": 3811,
      "বেশ": 3812,
      "নেই": 3813,
      "రోజుకు": 3814,
      "വി": 3815,
      "इससे": 3816,
      "நாள்": 3817,
      "మండలం": 3818,
      "పక్కనే": 3819,
      "नामक": 3820,
      "स्टब्स्": 3821,
      "శ్రీ": 3822,
      "ಅನ್ನು": 3823,
      "death": 3824,
      "বর্তমানে": 3825,
      "endu": 3826,
      "लेख": 3827,
      "wo": 3828,
      "##ڪ": 3829,
      "##ش": 3830,
      "ক্ষেত্রে": 3831,
      "ਕਰਦੇ": 3832,
      "ଜାତୀୟ": 3833,
      "यी": 3834,
      "##rs": 3835,
      "বিরুদ্ধে": 3836,
      "जनता": 3837,
      "வரும்": 3838,
      "பிறகு": 3839,
      "सामान्य": 3840,
      "1979": 3841,
      "టెలిగ్రాఫ్": 3842,
      "बन": 3843,
      "హాలు": 3844,
      "##T": 3845,
      "##िन": 3846,
      "##pur": 3847,
      "সৃষ্টি": 3848,
      "available": 3849,
      "நபர்கள்": 3850,
      "##श": 3851,
      "పరపతి": 3852,
      "law": 3853,
      "ಯಾವುದೇ": 3854,
      "ఉత్పాదక": 3855,
      "થઈ": 3856,
      "బాలబడి": 3857,
      "பல்வேறு": 3858,
      "شاهه": 3859,
      "ఇంటింటికీ": 3860,
      "##ଲ": 3861,
      "##f": 3862,
      "अभिनेत्री": 3863,
      "अत्र": 3864,
      "age": 3865,
      "సమీకృత": 3866,
      "సేకరించే": 3867,
      "వ్యర్థాలను": 3868,
      "খান": 3869,
      "##ત": 3870,
      "२०११": 3871,
      "##نگ": 3872,
      "##४": 3873,
      "films": 3874,
      "బయోగ్యాస్": 3875,
      "మేనేజిమెంటు": 3876,
      "இல்லை": 3877,
      "మరుగుదొడ్డి": 3878,
      "అలోపతి": 3879,
      "కెఫె": 3880,
      "ltr": 3881,
      "250px": 3882,
      "ఏటీఎమ్": 3883,
      "भारतातील": 3884,
      "36": 3885,
      "رهيو": 3886,
      "##சு": 3887,
      "##ांचा": 3888,
      "लेखहरू": 3889,
      "కేంద్రమైన": 3890,
      "उक्त": 3891,
      "kuch": 3892,
      "ਮੁੱਖ": 3893,
      "தகவல்": 3894,
      "##ತೆ": 3895,
      "##ું": 3896,
      "لیا": 3897,
      "ଆହୁରି": 3898,
      "மொத்த": 3899,
      "పట్టణమైన": 3900,
      "##९": 3901,
      "வேண்டிய": 3902,
      "বিশ্ববিদ্যালয়": 3903,
      "சிறந்த": 3904,
      "1975": 3905,
      "వీధుల": 3906,
      "खान": 3907,
      "population": 3908,
      "చెత్తను": 3909,
      "ডিসেম্বর": 3910,
      "आली": 3911,
      "संस्कृत": 3912,
      "کيس": 3913,
      "جنوبی": 3914,
      "যায়": 3915,
      "சென்னை": 3916,
      "##डी": 3917,
      "সরকারি": 3918,
      "##ار": 3919,
      "হলো": 3920,
      "सा": 3921,
      "उल्लेख": 3922,
      "member": 3923,
      "ইসলাম": 3924,
      "పారబోస్తారు": 3925,
      "##देखि": 3926,
      "ہوں": 3927,
      "जबकि": 3928,
      "राम": 3929,
      "ਸਕਦਾ": 3930,
      "మురుగునీటిని": 3931,
      "कहते": 3932,
      "##ക": 3933,
      "শহরের": 3934,
      "##ಕ್": 3935,
      "கோயில்கள்": 3936,
      "यात्रा": 3937,
      "প্ৰথম": 3938,
      "ভারত": 3939,
      "ଘଟଣା": 3940,
      "దూరం": 3941,
      "##ೇ": 3942,
      "پیدا": 3943,
      "வளர்ச்சி": 3944,
      "गीत": 3945,
      "ଲେଖା": 3946,
      "డిస్పెన్సరీ": 3947,
      "##টো": 3948,
      "خاندان": 3949,
      "ବୋଲି": 3950,
      "स्थापित": 3951,
      "Life": 3952,
      "পাওয়া": 3953,
      "உள்ளனர்": 3954,
      "General": 3955,
      "ریاست": 3956,
      "जवळील": 3957,
      "##तः": 3958,
      "डी": 3959,
      "times": 3960,
      "1978": 3961,
      "পায়": 3962,
      "வாழும்": 3963,
      "ಪ್ರಶಸ್ತಿ": 3964,
      "बनाइएका": 3965,
      "##ঃ": 3966,
      "प्रभाव": 3967,
      "development": 3968,
      "పంటలు": 3969,
      "انہیں": 3970,
      "രണ്ട്": 3971,
      "எம்": 3972,
      "Official": 3973,
      "1981": 3974,
      "மாதம்": 3975,
      "दिए": 3976,
      "माना": 3977,
      "पत्रिका": 3978,
      "यांना": 3979,
      "##ণ": 3980,
      "اے": 3981,
      "अशी": 3982,
      "کرنا": 3983,
      "સામાન્ય": 3984,
      "দিয়ে": 3985,
      "West": 3986,
      "करतात": 3987,
      "શકાય": 3988,
      "full": 3989,
      "మండలానికి": 3990,
      "##లోను": 3991,
      "କଥାଚିତ୍ର": 3992,
      "ঘটে": 3993,
      "along": 3994,
      "എല്ലാ": 3995,
      "lekin": 3996,
      "सुविधा": 3997,
      "##६": 3998,
      "त्यांचे": 3999,
      "हालांकि": 4000,
      "ടി": 4001,
      "મધ્ય": 4002,
      "పారామెడికల్": 4003,
      "00": 4004,
      "California": 4005,
      "अधिकारी": 4006,
      "दूर": 4007,
      "find": 4008,
      "1972": 4009,
      "دریا": 4010,
      "سینٹ": 4011,
      "पूरा": 4012,
      "اچي": 4013,
      "##నే": 4014,
      "अभवत्": 4015,
      "##ാണ്": 4016,
      "ਸਾਰੇ": 4017,
      "ಹಲವಾರು": 4018,
      "ਸ਼ਹਿਰ": 4019,
      "So": 4020,
      "level": 4021,
      "support": 4022,
      "##ंचे": 4023,
      "মহিলা": 4024,
      "زندگی": 4025,
      "হাজার": 4026,
      "##ছ": 4027,
      "went": 4028,
      "جاتی": 4029,
      "##اں": 4030,
      "ਕੋਈ": 4031,
      "ને": 4032,
      "تاريخ": 4033,
      "இரு": 4034,
      "ঘোষণা": 4035,
      "मूल": 4036,
      "فرانسیسی": 4037,
      "समूह": 4038,
      "##शी": 4039,
      "అమలవుతోంది": 4040,
      "That": 4041,
      "కిలోమీటర్ల": 4042,
      "ڪنهن": 4043,
      "പുതിയ": 4044,
      "వస్తువులు": 4045,
      "మార్కెట్": 4046,
      "شمالی": 4047,
      "१३": 4048,
      "ਗੁਰੂ": 4049,
      "पुस्तक": 4050,
      "தொடர்ந்து": 4051,
      "১৫": 4052,
      "content": 4053,
      "वर्तमान": 4054,
      "یعنی": 4055,
      "ऐतिहासिक": 4056,
      "##ga": 4057,
      "వినియోగంలో": 4058,
      "With": 4059,
      "woru": 4060,
      "عرب": 4061,
      "প্রদান": 4062,
      "లోని": 4063,
      "તેમને": 4064,
      "ধরে": 4065,
      "इसलिए": 4066,
      "taken": 4067,
      "نظام": 4068,
      "যেখানে": 4069,
      "कला": 4070,
      "These": 4071,
      "వ్యవసాయేతర": 4072,
      "##ார்": 4073,
      "કરતા": 4074,
      "बनाने": 4075,
      "don": 4076,
      "सेना": 4077,
      "નામ": 4078,
      "દિવેલા": 4079,
      "##തും": 4080,
      "short": 4081,
      "لوگوں": 4082,
      "##ങ്ങളിൽ": 4083,
      "Dr": 4084,
      "##ವರು": 4085,
      "##শ": 4086,
      "கலந்து": 4087,
      "social": 4088,
      "ଉପରେ": 4089,
      "स्थिति": 4090,
      "##ಡ್": 4091,
      "بے": 4092,
      "ପୁରସ୍କାର": 4093,
      "Delhi": 4094,
      "##R": 4095,
      "বিজ্ঞান": 4096,
      "എന്നാണ്": 4097,
      "ಭಾರತೀಯ": 4098,
      "ದೊಡ್ಡ": 4099,
      "##క": 4100,
      "published": 4101,
      "##ल्या": 4102,
      "##ातील": 4103,
      "##ین": 4104,
      "ను": 4105,
      "गयी": 4106,
      "era": 4107,
      "बी": 4108,
      "##ad": 4109,
      "આવ્યો": 4110,
      "વિસ્તારમાં": 4111,
      "થયો": 4112,
      "३०": 4113,
      "play": 4114,
      "##ಾದ": 4115,
      "##দ": 4116,
      "ব্যবস্থা": 4117,
      "##yon": 4118,
      "named": 4119,
      "स्म": 4120,
      "নারী": 4121,
      "##ટ": 4122,
      "##ଦ୍ୱାରା": 4123,
      "मन": 4124,
      "మొదలైన": 4125,
      "##ુ": 4126,
      "ଲିଙ୍କ": 4127,
      "کئی": 4128,
      "##ವ": 4129,
      "person": 4130,
      "शरीर": 4131,
      "##ತ": 4132,
      "give": 4133,
      "##ंची": 4134,
      "সময়": 4135,
      "থকা": 4136,
      "அன்று": 4137,
      "کرتا": 4138,
      "অক্টোবর": 4139,
      "गरेर": 4140,
      "##I": 4141,
      "সহ": 4142,
      "जे": 4143,
      "నీటిపారుదల": 4144,
      "बस": 4145,
      "দেয়": 4146,
      "##റ്റ്": 4147,
      "ভাৰতীয়": 4148,
      "आगे": 4149,
      "पहली": 4150,
      "असा": 4151,
      "વર્ષ": 4152,
      "সাহিত্য": 4153,
      "आधुनिक": 4154,
      "##യായി": 4155,
      "##ton": 4156,
      "विवाह": 4157,
      "মত": 4158,
      "ಇದೆ": 4159,
      "What": 4160,
      "গেছে": 4161,
      "मार्ग": 4162,
      "انهيءَ": 4163,
      "সংসদ": 4164,
      "##ानां": 4165,
      "son": 4166,
      "आंतरराष्ट्रीय": 4167,
      "২০": 4168,
      "जिसके": 4169,
      "##നെ": 4170,
      "গ্রহণ": 4171,
      "परंतु": 4172,
      "ਆਮ": 4173,
      "St": 4174,
      "१८": 4175,
      "ٿئي": 4176,
      "ਲਿਆ": 4177,
      "पूरी": 4178,
      "French": 4179,
      "সকল": 4180,
      "একটা": 4181,
      "ਵਾਰ": 4182,
      "মে": 4183,
      "ഇവ": 4184,
      "علاقے": 4185,
      "सुधारिएका": 4186,
      "টাকা": 4187,
      "general": 4188,
      "سی": 4189,
      "چین": 4190,
      "##ंचा": 4191,
      "rahi": 4192,
      "سر": 4193,
      "list": 4194,
      "સમાવેશ": 4195,
      "বর্তমান": 4196,
      "తెలంగాణ": 4197,
      "##ج": 4198,
      "१७": 4199,
      "అసెంబ్లీ": 4200,
      "ಜೊತೆಗೆ": 4201,
      "1976": 4202,
      "apni": 4203,
      "House": 4204,
      "##ul": 4205,
      "చేతిపంపుల": 4206,
      "1947": 4207,
      "आंध्र": 4208,
      "گے": 4209,
      "national": 4210,
      "single": 4211,
      "جيڪي": 4212,
      "##ry": 4213,
      "must": 4214,
      "தமிழ்நாட்டில்": 4215,
      "near": 4216,
      "অনুযায়ী": 4217,
      "आम": 4218,
      "आला": 4219,
      "##वे": 4220,
      "1967": 4221,
      "କିଛି": 4222,
      "மீது": 4223,
      "land": 4224,
      "China": 4225,
      "مولانا": 4226,
      "উল্লেখ": 4227,
      "##D": 4228,
      "যান": 4229,
      "नई": 4230,
      "Singh": 4231,
      "घोषणा": 4232,
      "##ਵਾਂ": 4233,
      "Association": 4234,
      "ಮಾತ್ರ": 4235,
      "चीन": 4236,
      "முறை": 4237,
      "दिवस": 4238,
      "1973": 4239,
      "received": 4240,
      "এপ্রিল": 4241,
      "ਹੁੰਦੇ": 4242,
      "##ದಿಂದ": 4243,
      "जातो": 4244,
      "ध्यान": 4245,
      "খুব": 4246,
      "रचना": 4247,
      "সেপ্টেম্বর": 4248,
      "केन्द्र": 4249,
      "پیش": 4250,
      "सन": 4251,
      "मानव": 4252,
      "सकिन्छ": 4253,
      "मुझे": 4254,
      "মতে": 4255,
      "దారిమార్పు": 4256,
      "एम": 4257,
      "kisi": 4258,
      "ছোট": 4259,
      "దూరంలోనూ": 4260,
      "१९": 4261,
      "கல்வி": 4262,
      "Award": 4263,
      "होतो": 4264,
      "##্ট": 4265,
      "##सी": 4266,
      "program": 4267,
      "شاعر": 4268,
      "পশ্চিম": 4269,
      "দুটি": 4270,
      "বিপক্ষে": 4271,
      "२५": 4272,
      "##ಾಗಿ": 4273,
      "include": 4274,
      "विषय": 4275,
      "होत": 4276,
      "##ँ": 4277,
      "लाल": 4278,
      "ಮೂರು": 4279,
      "రోజువారీ": 4280,
      "##ंना": 4281,
      "కు": 4282,
      "نیو": 4283,
      "ਭਾਸ਼ਾ": 4284,
      "gai": 4285,
      "money": 4286,
      "হোৱা": 4287,
      "##ೊಂದಿಗೆ": 4288,
      "करके": 4289,
      "स्थल": 4290,
      "band": 4291,
      "##E": 4292,
      "الینوائے": 4293,
      "لے": 4294,
      "ab": 4295,
      "side": 4296,
      "सब": 4297,
      "ଯାହା": 4298,
      "din": 4299,
      "दुनिया": 4300,
      "त्यामुळे": 4301,
      "পুলিশ": 4302,
      "કેટલાક": 4303,
      "away": 4304,
      "அரசியல்": 4305,
      "కుళాయిల": 4306,
      "उसने": 4307,
      "34": 4308,
      "ਕਾਰਨ": 4309,
      "##ள்": 4310,
      "##ତ": 4311,
      "##போது": 4312,
      "மட்டுமே": 4313,
      "లభిస్తున్న": 4314,
      "वन": 4315,
      "অভিনেতা": 4316,
      "300px": 4317,
      "मतदारसंघ": 4318,
      "ஓர்": 4319,
      "قومی": 4320,
      "album": 4321,
      "চলে": 4322,
      "##ସ": 4323,
      "ಇವರು": 4324,
      "ಕೂಡ": 4325,
      "দায়িত্ব": 4326,
      "ठूलो": 4327,
      "చాలా": 4328,
      "##P": 4329,
      "major": 4330,
      "இலங்கை": 4331,
      "ڏينهن": 4332,
      "ब्रिटिश": 4333,
      "aahe": 4334,
      "لوگ": 4335,
      "कविता": 4336,
      "பகுதியில்": 4337,
      "നിരവധി": 4338,
      "এরপর": 4339,
      "##हरूले": 4340,
      "जहां": 4341,
      "تین": 4342,
      "نالي": 4343,
      "प्राथमिक": 4344,
      "Hindi": 4345,
      "বঁটা": 4346,
      "##ासाठी": 4347,
      "seen": 4348,
      "সম্পাদক": 4349,
      "అవసరాల": 4350,
      "মোট": 4351,
      "ಇಲ್ಲಿ": 4352,
      "ব্রিটিশ": 4353,
      "ହାର": 4354,
      "ਯੂਨੀਵਰਸਿਟੀ": 4355,
      "##ங்களில்": 4356,
      "जिल्ह्यातील": 4357,
      "##ास": 4358,
      "station": 4359,
      "غیر": 4360,
      "men": 4361,
      "##ಂ": 4362,
      "സ്ഥിതി": 4363,
      "##সহ": 4364,
      "##தான்": 4365,
      "রহমান": 4366,
      "##साठी": 4367,
      "##ਿਕ": 4368,
      "health": 4369,
      "यसलाई": 4370,
      "উল্লেখযোগ্য": 4371,
      "சேர்ந்த": 4372,
      "अतिरिक्त": 4373,
      "1974": 4374,
      "আদি": 4375,
      "ಹೊಂದಿದೆ": 4376,
      "##L": 4377,
      "too": 4378,
      "મોટા": 4379,
      "مشہور": 4380,
      "##ড": 4381,
      "non": 4382,
      "Pakistan": 4383,
      "thumbnail": 4384,
      "பின்": 4385,
      "ਰੀਡਿਰੈਕਟ": 4386,
      "کرکٹ": 4387,
      "లేదా": 4388,
      "சான்றுகள்": 4389,
      "ابن": 4390,
      "கீழ்": 4391,
      "ଅବସ୍ଥିତ": 4392,
      "ہزار": 4393,
      "##ism": 4394,
      "ಕರ್ನಾಟಕ": 4395,
      "##డు": 4396,
      "making": 4397,
      "##ंग": 4398,
      "##षु": 4399,
      "##ాల": 4400,
      "पता": 4401,
      "ସାଧାରଣ": 4402,
      "राष्ट्र": 4403,
      "जहाँ": 4404,
      "यही": 4405,
      "திட்டம்": 4406,
      "bharat": 4407,
      "political": 4408,
      "##િક": 4409,
      "মানুষ": 4410,
      "done": 4411,
      "little": 4412,
      "ಮುಖ್ಯ": 4413,
      "ചിത്രം": 4414,
      "देते": 4415,
      "இந்தியாவின்": 4416,
      "By": 4417,
      "ଜିଲ୍ଲା": 4418,
      "established": 4419,
      "દરમિયાન": 4420,
      "##ൾ": 4421,
      "ਵਿੱਚੋਂ": 4422,
      "ବିଭିନ୍ନ": 4423,
      "स्रोत": 4424,
      "बड़े": 4425,
      "அதிக": 4426,
      "think": 4427,
      "নির্বাচিত": 4428,
      "##نا": 4429,
      "aaj": 4430,
      "الدین": 4431,
      "##O": 4432,
      "എൻ": 4433,
      "यांचे": 4434,
      "১২": 4435,
      "ਬਾਰੇ": 4436,
      "کیے": 4437,
      "अक्तूबर": 4438,
      "##ങ്ങളുടെ": 4439,
      "##ే": 4440,
      "written": 4441,
      "असतो": 4442,
      "##ന": 4443,
      "match": 4444,
      "काल": 4445,
      "##ലെ": 4446,
      "টেস্ট": 4447,
      "##ੂ": 4448,
      "ହେଲେ": 4449,
      "بہ": 4450,
      "তিন": 4451,
      "अमेरिकन": 4452,
      "Society": 4453,
      "ಗಳನ್ನು": 4454,
      "##ോ": 4455,
      "##ف": 4456,
      "##يءَ": 4457,
      "Government": 4458,
      "##ല്": 4459,
      "ಉತ್ತರ": 4460,
      "ಎಲ್ಲಾ": 4461,
      "##াৰ": 4462,
      "often": 4463,
      "సాగునీరు": 4464,
      "આવ્યા": 4465,
      "भारतको": 4466,
      "##ానికి": 4467,
      "मंत्री": 4468,
      "ନିମନ୍ତେ": 4469,
      "song": 4470,
      "ଅନ୍ୟ": 4471,
      "Institute": 4472,
      "1950": 4473,
      "community": 4474,
      "बंद": 4475,
      "పాఠశాలలు": 4476,
      "जीवित": 4477,
      "سید": 4478,
      "सबैभन्दा": 4479,
      "##्ट": 4480,
      "TV": 4481,
      "বছরের": 4482,
      "father": 4483,
      "court": 4484,
      "అవుతున్నాయి": 4485,
      "रोग": 4486,
      "पूर्वी": 4487,
      "ਨਾ": 4488,
      "થી": 4489,
      "1969": 4490,
      "وڌيڪ": 4491,
      "ଦିନ": 4492,
      "பெற்ற": 4493,
      "सम्पदा": 4494,
      "गर्दा": 4495,
      "##త": 4496,
      "പുരസ്കാരം": 4497,
      "নির্বাচন": 4498,
      "ಪ್ರಕಾರ": 4499,
      "##ڈ": 4500,
      "माहिती": 4501,
      "##यां": 4502,
      "Department": 4503,
      "working": 4504,
      "இவரது": 4505,
      "##ಗಳಿಂದ": 4506,
      "தமிழ்த்": 4507,
      "built": 4508,
      "##M": 4509,
      "രണ്ടു": 4510,
      "ఇంజనీరింగ్": 4511,
      "field": 4512,
      "ଇତିହାସ": 4513,
      "##ळ": 4514,
      "सामना": 4515,
      "तमे": 4516,
      "began": 4517,
      "hand": 4518,
      "لئے": 4519,
      "ਕਰਕੇ": 4520,
      "ଗୋଟିଏ": 4521,
      "God": 4522,
      "खिलाफ": 4523,
      "able": 4524,
      "किमी": 4525,
      "##না": 4526,
      "1962": 4527,
      "hone": 4528,
      "##ate": 4529,
      "High": 4530,
      "got": 4531,
      "उसका": 4532,
      "48": 4533,
      "ਖੇਤਰ": 4534,
      "##ര്": 4535,
      "##ছে": 4536,
      "ਜਿਵੇਂ": 4537,
      "special": 4538,
      "پاس": 4539,
      "hota": 4540,
      "গঠন": 4541,
      "Congress": 4542,
      "point": 4543,
      "वटा": 4544,
      "ஊரில்": 4545,
      "##யான": 4546,
      "River": 4547,
      "ज्ञान": 4548,
      "third": 4549,
      "From": 4550,
      "##லாம்": 4551,
      "rahaa": 4552,
      "অথবা": 4553,
      "##িয়া": 4554,
      "تعلق": 4555,
      "##ाय": 4556,
      "क्लब": 4557,
      "కొరకు": 4558,
      "വിവിധ": 4559,
      "ഇദ്ദേഹം": 4560,
      "हिन्दू": 4561,
      "##ji": 4562,
      "এম": 4563,
      "सुरक्षा": 4564,
      "প্রতিষ্ঠিত": 4565,
      "संविधान": 4566,
      "रहने": 4567,
      "never": 4568,
      "గుండా": 4569,
      "விருது": 4570,
      "ಅದನ್ನು": 4571,
      "ചെയ്യുന്നു": 4572,
      "##િંગ": 4573,
      "ਅਨੁਸਾਰ": 4574,
      "##ity": 4575,
      "car": 4576,
      "##க்கும்": 4577,
      "65": 4578,
      "নয়": 4579,
      "மிக": 4580,
      "சரி": 4581,
      "55": 4582,
      "##ana": 4583,
      "সভাপতি": 4584,
      "সেখানে": 4585,
      "ڳوٺ": 4586,
      "##യായ": 4587,
      "अभी": 4588,
      "##வே": 4589,
      "building": 4590,
      "ہوتے": 4591,
      "त्यो": 4592,
      "##ৰে": 4593,
      "ઉપરાંત": 4594,
      "##el": 4595,
      "ஒவ்வொரு": 4596,
      "German": 4597,
      "report": 4598,
      "جہاں": 4599,
      "1965": 4600,
      "মানুষের": 4601,
      "बाहर": 4602,
      "##யா": 4603,
      "##ో": 4604,
      "ਫਿਲਮ": 4605,
      "बैंक": 4606,
      "২০১৪": 4607,
      "हिंदू": 4608,
      "ਲੋਕਾਂ": 4609,
      "market": 4610,
      "ना": 4611,
      "38": 4612,
      "লগত": 4613,
      "অর্জন": 4614,
      "died": 4615,
      "football": 4616,
      "यसले": 4617,
      "الله": 4618,
      "नेता": 4619,
      "রাজনৈতিক": 4620,
      "বিভাগ": 4621,
      "स्वास्थ्य": 4622,
      "অভিনেত্রী": 4623,
      "म्हणतात": 4624,
      "தமிழ்நாட்டின்": 4625,
      "आने": 4626,
      "જિલ્લો": 4627,
      "ਪ੍ਰਾਪਤ": 4628,
      "##നും": 4629,
      "அடிப்படை": 4630,
      "மீண்டும்": 4631,
      "اہم": 4632,
      "स्कूल": 4633,
      "million": 4634,
      "ହୋଇଥିଲେ": 4635,
      "ഇന്ത്യയിലെ": 4636,
      "##ય": 4637,
      "ਮੌਤ": 4638,
      "प्रक्रिया": 4639,
      "ਸ਼ਾਮਲ": 4640,
      "##ಮ್": 4641,
      "علیہ": 4642,
      "ഇതിന്റെ": 4643,
      "மக்களவைத்": 4644,
      "final": 4645,
      "##ମାନେ": 4646,
      "दर": 4647,
      "37": 4648,
      "career": 4649,
      "காலத்தில்": 4650,
      "حصہ": 4651,
      "color": 4652,
      "##களால்": 4653,
      "জানুয়ারি": 4654,
      "html": 4655,
      "সংযোগ": 4656,
      "देखा": 4657,
      "തുടർന്ന്": 4658,
      "மாவட்டத்திலுள்ள": 4659,
      "مسجد": 4660,
      "ವಿವಿಧ": 4661,
      "पहा": 4662,
      "##ీ": 4663,
      "##ंनी": 4664,
      "அவை": 4665,
      "سلطنت": 4666,
      "head": 4667,
      "42": 4668,
      "نقل": 4669,
      "Center": 4670,
      "##ವೆ": 4671,
      "big": 4672,
      "ਕੀਤੇ": 4673,
      "ஆண்கள்": 4674,
      "ఉంటుంది": 4675,
      "##ರೆ": 4676,
      "देवी": 4677,
      "२०१६": 4678,
      "role": 4679,
      "ଔଷଧ": 4680,
      "निर्णय": 4681,
      "एकूण": 4682,
      "ചരിത്രം": 4683,
      "جبکہ": 4684,
      "গঠিত": 4685,
      "২০১২": 4686,
      "ଓଡ଼ିଶାର": 4687,
      "##ડ": 4688,
      "स्तर": 4689,
      "କାର୍ଯ୍ୟ": 4690,
      "আবার": 4691,
      "କିନ୍ତୁ": 4692,
      "जिल्लाका": 4693,
      "ماڻهو": 4694,
      "Rs": 4695,
      "ٻين": 4696,
      "इस्तेमाल": 4697,
      "निधन": 4698,
      "ചെയ്ത": 4699,
      "##ve": 4700,
      "এতে": 4701,
      "ବେଳେ": 4702,
      "##ਈ": 4703,
      "ହୋଇଥାଏ": 4704,
      "##పై": 4705,
      "तौर": 4706,
      "1968": 4707,
      "کالج": 4708,
      "##யே": 4709,
      "तु": 4710,
      "संस्कृति": 4711,
      "பிற": 4712,
      "اعظم": 4713,
      "ছবি": 4714,
      "२०१४": 4715,
      "##نے": 4716,
      "web": 4717,
      "تاسیسات": 4718,
      "தி": 4719,
      "వరి": 4720,
      "पुत्र": 4721,
      "জনসংখ্যা": 4722,
      "##માંથી": 4723,
      "सप्तर्षि": 4724,
      "बाट": 4725,
      "দেশ": 4726,
      "प्रणाली": 4727,
      "उत्पन्न": 4728,
      "பெண்": 4729,
      "এছাড়াও": 4730,
      "400": 4731,
      "সময়ে": 4732,
      "২০১০": 4733,
      "##ତା": 4734,
      "Read": 4735,
      "बड़ी": 4736,
      "services": 4737,
      "ابو": 4738,
      "ஐக்கிய": 4739,
      "ਸਦੀ": 4740,
      "##ie": 4741,
      "স্বাধীনতা": 4742,
      "رہی": 4743,
      "##ே": 4744,
      "species": 4745,
      "२०१५": 4746,
      "among": 4747,
      "పురుషుల": 4748,
      "शक्ति": 4749,
      "प्रदर्शन": 4750,
      "আইন": 4751,
      "look": 4752,
      "সবচেয়ে": 4753,
      "taar": 4754,
      "వరకు": 4755,
      "لاہور": 4756,
      "ఎస్": 4757,
      "பூசை": 4758,
      "##कार": 4759,
      "##َ": 4760,
      "##va": 4761,
      "Chief": 4762,
      "रेल्वे": 4763,
      "Best": 4764,
      "देता": 4765,
      "बढी": 4766,
      "पहिले": 4767,
      "जस्तै": 4768,
      "فوج": 4769,
      "My": 4770,
      "ترکی": 4771,
      "open": 4772,
      "جانے": 4773,
      "आपके": 4774,
      "##વા": 4775,
      "প্রকাশিত": 4776,
      "پیدائشیں": 4777,
      "1964": 4778,
      "##ത്തിനു": 4779,
      "East": 4780,
      "##ें": 4781,
      "જો": 4782,
      "##हरूमा": 4783,
      "వారు": 4784,
      "##lo": 4785,
      "लोकप्रिय": 4786,
      "office": 4787,
      "जिससे": 4788,
      "war": 4789,
      "die": 4790,
      "ಹಲವು": 4791,
      "trini": 4792,
      "Cup": 4793,
      "ଭାଷା": 4794,
      "##ரி": 4795,
      "बाह्य लिङ्कहरू": 4796,
      "వారి": 4797,
      "অসম": 4798,
      "project": 4799,
      "##ણ": 4800,
      "২০১৩": 4801,
      "lot": 4802,
      "திரைப்பட": 4803,
      "பற்றி": 4804,
      "background": 4805,
      "live": 4806,
      "چار": 4807,
      "नाटक": 4808,
      "பொதுவாக": 4809,
      "mother": 4810,
      "ਦੌਰਾਨ": 4811,
      "पाइने": 4812,
      "मामले": 4813,
      "##ല": 4814,
      "vah": 4815,
      "भूगोल": 4816,
      "चित्र": 4817,
      "##டி": 4818,
      "पाइन्छ": 4819,
      "page": 4820,
      "রাজ্যের": 4821,
      "રોજ": 4822,
      "കൊണ്ട്": 4823,
      "##तील": 4824,
      "पुढे": 4825,
      "##aa": 4826,
      "प्रतिशत": 4827,
      "change": 4828,
      "ધરાવે": 4829,
      "##णे": 4830,
      "மொத்தம்": 4831,
      "छैन": 4832,
      "وڏو": 4833,
      "किलोमीटर": 4834,
      "समावेश": 4835,
      "##താണ്": 4836,
      "things": 4837,
      "जिस": 4838,
      "৩০": 4839,
      "తారు": 4840,
      "مغربی": 4841,
      "माध्यम": 4842,
      "Party": 4843,
      "प्रकाश": 4844,
      "थिइन्": 4845,
      "राज्यातील": 4846,
      "દિવસ": 4847,
      "##ैः": 4848,
      "सहित": 4849,
      "ली": 4850,
      "২০১৮": 4851,
      "##த்திற்கு": 4852,
      "நிலையில்": 4853,
      "jab": 4854,
      "যোগ": 4855,
      "دوسرے": 4856,
      "মধ্য": 4857,
      "te": 4858,
      "संबंध": 4859,
      "انسان": 4860,
      "##નાં": 4861,
      "परिणाम": 4862,
      "type": 4863,
      "put": 4864,
      "America": 4865,
      "##লে": 4866,
      "process": 4867,
      "ಗಳ": 4868,
      "സംവിധാനം": 4869,
      "मोदी": 4870,
      "control": 4871,
      "भर": 4872,
      "baat": 4873,
      "##െ": 4874,
      "aar": 4875,
      "गांधी": 4876,
      "##ತು": 4877,
      "দিতে": 4878,
      "research": 4879,
      "town": 4880,
      "births": 4881,
      "இதனால்": 4882,
      "title": 4883,
      "तत्र": 4884,
      "ചെറിയ": 4885,
      "##ర్": 4886,
      "وڏي": 4887,
      "##ମ": 4888,
      "##தாக": 4889,
      "صورت": 4890,
      "शासन": 4891,
      "ਵਾਲਾ": 4892,
      "record": 4893,
      "##se": 4894,
      "તેમજ": 4895,
      "janya": 4896,
      "వెలుపలి": 4897,
      "ਪਹਿਲੀ": 4898,
      "##കളെ": 4899,
      "কৰাৰ": 4900,
      "غلام": 4901,
      "election": 4902,
      "دنيا": 4903,
      "##تا": 4904,
      "కొన్ని": 4905,
      "##du": 4906,
      "سبب": 4907,
      "علاوہ": 4908,
      "ব্যবহৃত": 4909,
      "others": 4910,
      "सांस्कृतिक": 4911,
      "ਜਾਣ": 4912,
      "ani": 4913,
      "அனைத்து": 4914,
      "official": 4915,
      "గ్రామాల": 4916,
      "meeting": 4917,
      "இவற்றில்": 4918,
      "କଲେ": 4919,
      "night": 4920,
      "تعليم": 4921,
      "First": 4922,
      "مقرر": 4923,
      "##ion": 4924,
      "education": 4925,
      "ஆர்": 4926,
      "রান": 4927,
      "समस्या": 4928,
      "human": 4929,
      "প্ৰায়": 4930,
      "நான்கு": 4931,
      "##یہ": 4932,
      "मेरे": 4933,
      "ନାହିଁ": 4934,
      "##ವೂ": 4935,
      "किन्तु": 4936,
      "अधिकांश": 4937,
      "অঞ্চল": 4938,
      "ભાગ": 4939,
      "##F": 4940,
      "नयाँ": 4941,
      "kaam": 4942,
      "39": 4943,
      "उद्योग": 4944,
      "ব্যৱহাৰ": 4945,
      "জানান": 4946,
      "1948": 4947,
      "बिना": 4948,
      "al": 4949,
      "##िका": 4950,
      "ਤਰ੍ਹਾਂ": 4951,
      "always": 4952,
      "##B": 4953,
      "পুরুষ": 4954,
      "आयोजित": 4955,
      "##ులు": 4956,
      "సిబ్బంది": 4957,
      "തുടങ്ങി": 4958,
      "living": 4959,
      "১১": 4960,
      "ਸਾਹਿਬ": 4961,
      "ఆమె": 4962,
      "થઇ": 4963,
      "ڪيائين": 4964,
      "ਸਕੂਲ": 4965,
      "পূর্বে": 4966,
      "##ation": 4967,
      "ਰਹੇ": 4968,
      "हमारे": 4969,
      "وئي": 4970,
      "##त्": 4971,
      "ದಕ್ಷಿಣ": 4972,
      "اداکارائیں": 4973,
      "പേരിൽ": 4974,
      "பற்றிய": 4975,
      "##ங்களின்": 4976,
      "त्याच्या": 4977,
      "England": 4978,
      "ଜୀବନ": 4979,
      "##ਦਾ": 4980,
      "Court": 4981,
      "०००": 4982,
      "Australia": 4983,
      "##ুল": 4984,
      "विजय": 4985,
      "##सम्म": 4986,
      "साथै": 4987,
      "##han": 4988,
      "##ेषु": 4989,
      "कुरा": 4990,
      "पत्नी": 4991,
      "why": 4992,
      "Some": 4993,
      "food": 4994,
      "گڏ": 4995,
      "گھر": 4996,
      "##യ്ക്ക്": 4997,
      "##ik": 4998,
      "وارو": 4999,
      "अधिकृत": 5000,
      "اندر": 5001,
      "నేరుగా": 5002,
      "اصل": 5003,
      "ખાસ": 5004,
      "1956": 5005,
      "हेर्नुहोस्": 5006,
      "ప్రాంతాల": 5007,
      "دیگر": 5008,
      "total": 5009,
      "یونیورسٹی": 5010,
      "காரணமாக": 5011,
      "##हरुको": 5012,
      "دونوں": 5013,
      "विकसित": 5014,
      "together": 5015,
      "गये": 5016,
      "જેવા": 5017,
      "run": 5018,
      "विक्रम": 5019,
      "যুদ্ধ": 5020,
      "##un": 5021,
      "बनाया": 5022,
      "करणे": 5023,
      "काळात": 5024,
      "जाएगा": 5025,
      "কর্তৃক": 5026,
      "##nt": 5027,
      "அறிவியல்": 5028,
      "ਇਤਿਹਾਸ": 5029,
      "পাকিস্তান": 5030,
      "##ಲಿ": 5031,
      "44": 5032,
      "திருக்கோயில்": 5033,
      "जात": 5034,
      "##ట్": 5035,
      "లేరు": 5036,
      "അതിന്റെ": 5037,
      "નો": 5038,
      "சி": 5039,
      "اسان": 5040,
      "ଆଦି": 5041,
      "ਵਾਲੀ": 5042,
      "ya": 5043,
      "##ian": 5044,
      "1966": 5045,
      "रुपये": 5046,
      "##ங்": 5047,
      "স্কুল": 5048,
      "co": 5049,
      "सूचना": 5050,
      "ଅଟନ୍ତି": 5051,
      "##ത്ത്": 5052,
      "##ക്കു": 5053,
      "Day": 5054,
      "इंडिया": 5055,
      "ಕೇವಲ": 5056,
      "ಹೆಸರು": 5057,
      "##ತ್ತು": 5058,
      "During": 5059,
      "होगी": 5060,
      "கட்டுப்பாட்டில்": 5061,
      "त्याला": 5062,
      "रखा": 5063,
      "games": 5064,
      "ويا": 5065,
      "آزاد": 5066,
      "half": 5067,
      "பிறப்பு": 5068,
      "بڑا": 5069,
      "##able": 5070,
      "বিশ্ব": 5071,
      "নিজের": 5072,
      "இரண்டாம்": 5073,
      "##यों": 5074,
      "ਜਾਂਦੇ": 5075,
      "सात": 5076,
      "##ئے": 5077,
      "##تی": 5078,
      "२१": 5079,
      "ختم": 5080,
      "start": 5081,
      "hayes": 5082,
      "முடியும்": 5083,
      "##ంది": 5084,
      "Union": 5085,
      "தற்போது": 5086,
      "gaye": 5087,
      "जगह": 5088,
      "خدا": 5089,
      "رنگ": 5090,
      "বাংলাদেশী": 5091,
      "২০১৫": 5092,
      "گن": 5093,
      "मुख्यमंत्री": 5094,
      "ਜ਼ਿਲ੍ਹੇ": 5095,
      "२०१०": 5096,
      "पी": 5097,
      "period": 5098,
      "பூசைகள்": 5099,
      "##vi": 5100,
      "بنا": 5101,
      "ସହିତ": 5102,
      "شہروں": 5103,
      "विस्तृत": 5104,
      "tarah": 5105,
      "Science": 5106,
      "पर्यटन": 5107,
      "##दार": 5108,
      "బస్సులు": 5109,
      "international": 5110,
      "##প": 5111,
      "حسن": 5112,
      "##डा": 5113,
      "##ਦੀ": 5114,
      "যিনি": 5115,
      "ஒரே": 5116,
      "সম্পর্কে": 5117,
      "اسلامی": 5118,
      "Women": 5119,
      "সরকারের": 5120,
      "##டு": 5121,
      "পান": 5122,
      "दल": 5123,
      "दर्शन": 5124,
      "Park": 5125,
      "அம்மன்": 5126,
      "अभिनेता": 5127,
      "হিন্দু": 5128,
      "##த்து": 5129,
      "##्न": 5130,
      "অর্থ": 5131,
      "حڪومت": 5132,
      "##ार": 5133,
      "ഇതിൽ": 5134,
      "जल": 5135,
      "لینڈ": 5136,
      "কৰিব": 5137,
      "ਵਿਗਿਆਨ": 5138,
      "જાય": 5139,
      "##ري": 5140,
      "article": 5141,
      "better": 5142,
      "நிலை": 5143,
      "road": 5144,
      "২০১৬": 5145,
      "##पासून": 5146,
      "works": 5147,
      "ଠାରୁ": 5148,
      "ସେହି": 5149,
      "##ck": 5150,
      "বিখ্যাত": 5151,
      "সদর": 5152,
      "मिल": 5153,
      "ऐसी": 5154,
      "சேர்ந்தது": 5155,
      "ସଭା": 5156,
      "নামৰ": 5157,
      "پی": 5158,
      "da": 5159,
      "जनगणना": 5160,
      "provide": 5161,
      "शोध": 5162,
      "ಅತಿ": 5163,
      "पक्ष": 5164,
      "##تے": 5165,
      "ਲੇਖਕ": 5166,
      "phone": 5167,
      "তথা": 5168,
      "ಸಾಹಿತ್ಯ": 5169,
      "##ਿੰਗ": 5170,
      "ಸಂಗೀತ": 5171,
      "जमीन": 5172,
      "km": 5173,
      "পক্ষে": 5174,
      "areas": 5175,
      "دار": 5176,
      "دن": 5177,
      "Central": 5178,
      "छोटे": 5179,
      "250": 5180,
      "##ce": 5181,
      "##ದ್ದು": 5182,
      "47": 5183,
      "Council": 5184,
      "##০": 5185,
      "تعداد": 5186,
      "UK": 5187,
      "কৰিবলৈ": 5188,
      "കിലോമീറ്റർ": 5189,
      "गर्नु": 5190,
      "১৪": 5191,
      "ہندوستان": 5192,
      "पद": 5193,
      "क्षमता": 5194,
      "મળે": 5195,
      "પોતાના": 5196,
      "ইউনিয়নের": 5197,
      "having": 5198,
      "প্রতিষ্ঠান": 5199,
      "ହେଲା": 5200,
      "கே": 5201,
      "150": 5202,
      "மொழி": 5203,
      "శాల": 5204,
      "माता": 5205,
      "যেতে": 5206,
      "फुटबॉल": 5207,
      "bahut": 5208,
      "##इ": 5209,
      "येते": 5210,
      "समान": 5211,
      "##ङ": 5212,
      "કોઈ": 5213,
      "ಕೆಲಸ": 5214,
      "स्टेशन": 5215,
      "1957": 5216,
      "George": 5217,
      "naam": 5218,
      "बड़ा": 5219,
      "یونین": 5220,
      "1945": 5221,
      "study": 5222,
      "سکتا": 5223,
      "##ால்": 5224,
      "Books": 5225,
      "##N": 5226,
      "ಪ್ರತಿ": 5227,
      "desh": 5228,
      "पत्र": 5229,
      "পরিচালক": 5230,
      "તેમાં": 5231,
      "செய்ய": 5232,
      "अस्मिन्": 5233,
      "William": 5234,
      "مدد": 5235,
      "قتل": 5236,
      "ગુજરાતી": 5237,
      "গান": 5238,
      "వంటి": 5239,
      "ವರ್ಷ": 5240,
      "اُن": 5241,
      "ନିଜ": 5242,
      "43": 5243,
      "##et": 5244,
      "64": 5245,
      "ಬಿ": 5246,
      "ନିର୍ବାଚନ": 5247,
      "دل": 5248,
      "1952": 5249,
      "किलोमीटरहून": 5250,
      "तैयार": 5251,
      "இருக்கிறது": 5252,
      "pani": 5253,
      "गांव": 5254,
      "वी": 5255,
      "##લી": 5256,
      "ତାଙ୍କୁ": 5257,
      "ইত্যাদি": 5258,
      "مشی": 5259,
      "ফুটবল": 5260,
      "ওই": 5261,
      "उनलाई": 5262,
      "দেওয়া": 5263,
      "created": 5264,
      "More": 5265,
      "করেছিল": 5266,
      "مشهور": 5267,
      "യു": 5268,
      "வசதிகள்": 5269,
      "फ़िल्म": 5270,
      "##మైన": 5271,
      "స్త్రీల": 5272,
      "জীবিত": 5273,
      "మీద": 5274,
      "##ుడు": 5275,
      "ನಿಂದ": 5276,
      "1963": 5277,
      "पहिला": 5278,
      "lakh": 5279,
      "David": 5280,
      "##ness": 5281,
      "##ies": 5282,
      "##दा": 5283,
      "آئی": 5284,
      "سڀ": 5285,
      "निर्वाचन": 5286,
      "२०१२": 5287,
      "সামাজিক": 5288,
      "ഉണ്ട്": 5289,
      "countries": 5290,
      "মা": 5291,
      "राजकारणी": 5292,
      "बाजार": 5293,
      "শেখ": 5294,
      "young": 5295,
      "অনুসারে": 5296,
      "light": 5297,
      "Prime": 5298,
      "মুক্তি": 5299,
      "1000": 5300,
      "ಎಲ್ಲ": 5301,
      "naheen": 5302,
      "عالم": 5303,
      "ആർ": 5304,
      "महाराष्ट्रातील": 5305,
      "আলী": 5306,
      "અહીં": 5307,
      "##chi": 5308,
      "والا": 5309,
      "##ist": 5310,
      "त्याने": 5311,
      "##নি": 5312,
      "પૂર્વ": 5313,
      "व्यापार": 5314,
      "कोड": 5315,
      "شخص": 5316,
      "২০০১": 5317,
      "கோயிலாகும்": 5318,
      "২০০৮": 5319,
      "বিষয়ে": 5320,
      "says": 5321,
      "நூற்றாண்டைச்": 5322,
      "wife": 5323,
      "##களாக": 5324,
      "leader": 5325,
      "example": 5326,
      "विश्वास": 5327,
      "अंतिम": 5328,
      "ପ୍ରାୟ": 5329,
      "black": 5330,
      "##જી": 5331,
      "##રી": 5332,
      "গুরুত্বপূর্ণ": 5333,
      "41": 5334,
      "##ਆ": 5335,
      "ପର୍ଯ୍ୟନ୍ତ": 5336,
      "##ంగా": 5337,
      "જોવા": 5338,
      "sarkaar": 5339,
      "##ల్": 5340,
      "वर्णन": 5341,
      "ડાંગર": 5342,
      "সেরা": 5343,
      "ആദ്യത്തെ": 5344,
      "आएको": 5345,
      "##ത്തിലെ": 5346,
      "ਆਦਿ": 5347,
      "शर्मा": 5348,
      "வந்த": 5349,
      "त्यस": 5350,
      "सम्मान": 5351,
      "James": 5352,
      "ଜିଲ୍ଲାର": 5353,
      "مسلمان": 5354,
      "பெற்றார்": 5355,
      "সাক্ষরতার": 5356,
      "six": 5357,
      "##ور": 5358,
      "52": 5359,
      "আধুনিক": 5360,
      "होना": 5361,
      "front": 5362,
      "जातात": 5363,
      "सुरु": 5364,
      "ਦਿੱਤੀ": 5365,
      "अन्तर्राष्ट्रिय": 5366,
      "बने": 5367,
      "##ರಿ": 5368,
      "انڈیانا": 5369,
      "1961": 5370,
      "ଯେ": 5371,
      "पोर्टल": 5372,
      "পোৱা": 5373,
      "బహిరంగ": 5374,
      "తిరుగుతున్నాయి": 5375,
      "कार्यालय": 5376,
      "ind": 5377,
      "ਦਿਨ": 5378,
      "ജി": 5379,
      "જિલ્લાના": 5380,
      "Home": 5381,
      "ക്ക്": 5382,
      "لا": 5383,
      "##വ": 5384,
      "E0": 5385,
      "ଉତ୍ତର": 5386,
      "ekati": 5387,
      "ஆறு": 5388,
      "##ங்களும்": 5389,
      "##ବା": 5390,
      "European": 5391,
      "##ಯಿಂದ": 5392,
      "জানা": 5393,
      "##ty": 5394,
      "যারা": 5395,
      "result": 5396,
      "ക്ഷേത്രം": 5397,
      "കൂടാതെ": 5398,
      "संबंधित": 5399,
      "##ment": 5400,
      "शक": 5401,
      "टी": 5402,
      "related": 5403,
      "বিভাগের": 5404,
      "ਇਨ੍ਹਾਂ": 5405,
      "ಅವನ": 5406,
      "white": 5407,
      "woman": 5408,
      "२४": 5409,
      "२००८": 5410,
      "Sri": 5411,
      "##ਦੇ": 5412,
      "સમય": 5413,
      "समयमा": 5414,
      "Bangladesh": 5415,
      "##াল": 5416,
      "singh": 5417,
      "ଦାସ": 5418,
      "51": 5419,
      "original": 5420,
      "والد": 5421,
      "जिसका": 5422,
      "ਵੱਧ": 5423,
      "இந்தியா": 5424,
      "read": 5425,
      "১৬": 5426,
      "##थ": 5427,
      "##লা": 5428,
      "పేరు": 5429,
      "told": 5430,
      "جيڪا": 5431,
      "تھیں": 5432,
      "साधारण": 5433,
      "##णी": 5434,
      "যুক্ত": 5435,
      "ହୋଇଥିବା": 5436,
      "ٿيندو": 5437,
      "यांचा": 5438,
      "வகைப்பாட்டில்": 5439,
      "பகுதி": 5440,
      "सीमा": 5441,
      "something": 5442,
      "##ങ്": 5443,
      "مینیسوٹا": 5444,
      "બાહ્ય": 5445,
      "possible": 5446,
      "##ડી": 5447,
      "ରେ": 5448,
      "months": 5449,
      "శుద్ధి": 5450,
      "బోరు": 5451,
      "খেলায়": 5452,
      "மத்திய": 5453,
      "بڑی": 5454,
      "آگسٽ": 5455,
      "০০০": 5456,
      "ചെയ്യുന്ന": 5457,
      "तदा": 5458,
      "பேர்": 5459,
      "गावे": 5460,
      "##के": 5461,
      "துறையின்": 5462,
      "५०": 5463,
      "##st": 5464,
      "##ਿਆਂ": 5465,
      "event": 5466,
      "Panchayat": 5467,
      "परिवर्तन": 5468,
      "ਉਸਨੂੰ": 5469,
      "లోనూ": 5470,
      "##ర": 5471,
      "మధ్య": 5472,
      "మంచినీటి": 5473,
      "କୌଣସି": 5474,
      "بڑے": 5475,
      "ھو": 5476,
      "##गा": 5477,
      "گاؤں": 5478,
      "##ਰੀ": 5479,
      "بار": 5480,
      "રહે": 5481,
      "ঘটনা": 5482,
      "##रे": 5483,
      "পাশাপাশি": 5484,
      "##ଙ୍କର": 5485,
      "div": 5486,
      "حيدرآباد": 5487,
      "وزیر": 5488,
      "included": 5489,
      "बनी": 5490,
      "২০০৯": 5491,
      "##യിലും": 5492,
      "date": 5493,
      "राष्ट्रपति": 5494,
      "books": 5495,
      "നടന്ന": 5496,
      "જેમ": 5497,
      "##ts": 5498,
      "less": 5499,
      "design": 5500,
      "کراچی": 5501,
      "##லி": 5502,
      "হোসেন": 5503,
      "लेखाः": 5504,
      "उदाहरण": 5505,
      "آڪٽوبر": 5506,
      "স্থাপন": 5507,
      "எந்த": 5508,
      "२२": 5509,
      "حمل": 5510,
      "##िस": 5511,
      "এলাকা": 5512,
      "लोकसंख्या": 5513,
      "स्पष्ट": 5514,
      "କରନ୍ତି": 5515,
      "percent": 5516,
      "ଏହାକୁ": 5517,
      "મગફળી": 5518,
      "اپريل": 5519,
      "ଦେଇଥିଲେ": 5520,
      "ji": 5521,
      "really": 5522,
      "Group": 5523,
      "காலம்": 5524,
      "आवश्यकता": 5525,
      "keep": 5526,
      "ਸ਼ਬਦ": 5527,
      "##si": 5528,
      "شھر": 5529,
      "पाणी": 5530,
      "once": 5531,
      "##களையும்": 5532,
      "പേര്": 5533,
      "##ेण": 5534,
      "##ந்து": 5535,
      "দিয়া": 5536,
      "भारताच्या": 5537,
      "त्यांची": 5538,
      "जाए": 5539,
      "இவர்களில்": 5540,
      "Now": 5541,
      "##િત": 5542,
      "வந்து": 5543,
      "मान्यता": 5544,
      "اهي": 5545,
      "##ात्": 5546,
      "ਤਿੰਨ": 5547,
      "46": 5548,
      "यो पनि हेर्नुहोस्": 5549,
      "यत्": 5550,
      "means": 5551,
      "player": 5552,
      "ദേശീയ": 5553,
      "جنوري": 5554,
      "1940": 5555,
      "##య": 5556,
      "1958": 5557,
      "بی": 5558,
      "हत्या": 5559,
      "led": 5560,
      "নভেম্বর": 5561,
      "আসে": 5562,
      "தானியக்கக்": 5563,
      "art": 5564,
      "How": 5565,
      "پہلی": 5566,
      "सम्बद्धाः": 5567,
      "ইংরেজি": 5568,
      "##ಯೇ": 5569,
      "हुन्छन्": 5570,
      "নামক": 5571,
      "मेरी": 5572,
      "قانون": 5573,
      "চেষ্টা": 5574,
      "logon": 5575,
      "##மை": 5576,
      "ರಾಷ್ಟ್ರೀಯ": 5577,
      "1955": 5578,
      "రాష్ట్రం": 5579,
      "##to": 5580,
      "اها": 5581,
      "இடம்": 5582,
      "உலக": 5583,
      "ଚଳଚ୍ଚିତ୍ର": 5584,
      "थीं": 5585,
      "நிறுவனம்": 5586,
      "ابتدائی": 5587,
      "بیان": 5588,
      "শ্রেষ্ঠ": 5589,
      "পরিচালনা": 5590,
      "সাবেক": 5591,
      "किये": 5592,
      "प्रयास": 5593,
      "##లకు": 5594,
      "రక్షిత": 5595,
      "नए": 5596,
      "ಬೇರೆ": 5597,
      "झालेल्या": 5598,
      "आया": 5599,
      "جاری": 5600,
      "##யுடன்": 5601,
      "১৮": 5602,
      "##ll": 5603,
      "##ری": 5604,
      "২৫": 5605,
      "चर्चा": 5606,
      "करण्यासाठी": 5607,
      "هر": 5608,
      "##w": 5609,
      "##യോ": 5610,
      "তৃতীয়": 5611,
      "ਘਰ": 5612,
      "##ିତ": 5613,
      "1954": 5614,
      "ಹೀಗೆ": 5615,
      "മാത്രം": 5616,
      "ضلعي": 5617,
      "दिले": 5618,
      "##ஆம்": 5619,
      "করছে": 5620,
      "বহু": 5621,
      "جانب": 5622,
      "তারিখে": 5623,
      "Education": 5624,
      "மட்டும்": 5625,
      "Khan": 5626,
      "২০১৭": 5627,
      "দেশে": 5628,
      "##ര": 5629,
      "current": 5630,
      "মাত্র": 5631,
      "रात": 5632,
      "नगरपालिका": 5633,
      "49": 5634,
      "action": 5635,
      "कृष्ण": 5636,
      "college": 5637,
      "વિવિધ": 5638,
      "గణాంకాలు": 5639,
      "ব্যক্তিগত": 5640,
      "ڏنو": 5641,
      "নেন": 5642,
      "child": 5643,
      "১৯": 5644,
      "سیاسی": 5645,
      "##ामध्ये": 5646,
      "common": 5647,
      "1930": 5648,
      "স্টেশন": 5649,
      "அதில்": 5650,
      "Research": 5651,
      "Police": 5652,
      "हाथ": 5653,
      "जानेवारी": 5654,
      "അല്ലെങ്കിൽ": 5655,
      "##ನೇ": 5656,
      "ಭಾರತ": 5657,
      "ভূমিকা": 5658,
      "ਵਿਖੇ": 5659,
      "بلکہ": 5660,
      "হওয়ার": 5661,
      "२०१७": 5662,
      "television": 5663,
      "लागू": 5664,
      "week": 5665,
      "پور": 5666,
      "##இல்": 5667,
      "ला": 5668,
      "پيدا": 5669,
      "##टी": 5670,
      "सहयोग": 5671,
      "دان": 5672,
      "मैच": 5673,
      "lost": 5674,
      "##টির": 5675,
      "ஒருகாலப்": 5676,
      "ಬಹಳ": 5677,
      "వదులుతున్నారు": 5678,
      "etc": 5679,
      "King": 5680,
      "shuru": 5681,
      "##हरूलाई": 5682,
      "साक्षरता": 5683,
      "আৰম্ভ": 5684,
      "અલગ": 5685,
      "ಕೇಂದ್ರ": 5686,
      "سيپٽمبر": 5687,
      "ആയി": 5688,
      "നേടി": 5689,
      "तरी": 5690,
      "##वाद": 5691,
      "ڊسمبر": 5692,
      "वापर": 5693,
      "حسین": 5694,
      "ٻئي": 5695,
      "##ਦ": 5696,
      "##হ": 5697,
      "##ଣ": 5698,
      "##மா": 5699,
      "আজ": 5700,
      "face": 5701,
      "மீ": 5702,
      "ভিতৰত": 5703,
      "மன்ற": 5704,
      "آيو": 5705,
      "experience": 5706,
      "இன்று": 5707,
      "पुनर्प्रेषित": 5708,
      "મંદિર": 5709,
      "جاتے": 5710,
      "##ting": 5711,
      "##ମାନଙ୍କ": 5712,
      "மற்ற": 5713,
      "लेने": 5714,
      "##वादी": 5715,
      "wants": 5716,
      "পিছত": 5717,
      "رسول": 5718,
      "সুযোগ": 5719,
      "તલ": 5720,
      "ٿيڻ": 5721,
      "বৃদ্ধি": 5722,
      "ಉಲ್ಲೇಖಗಳು": 5723,
      "दिनों": 5724,
      "##લા": 5725,
      "##లలో": 5726,
      "month": 5727,
      "##યા": 5728,
      "انگریزی": 5729,
      "##ின்": 5730,
      "real": 5731,
      "##లోనూ": 5732,
      "ଅଛି": 5733,
      "قوم": 5734,
      "##tion": 5735,
      "পরবর্তীতে": 5736,
      "छु": 5737,
      "ஊரக": 5738,
      "নির্মাণ": 5739,
      "ബ്രിട്ടീഷ്": 5740,
      "ಮಾಡುವ": 5741,
      "গত": 5742,
      "রয়েছে": 5743,
      "उत्कृष्ट": 5744,
      "२३": 5745,
      "file": 5746,
      "বিশ্বাস": 5747,
      "কবি": 5748,
      "1959": 5749,
      "வருகிறது": 5750,
      "وفیات": 5751,
      "മറ്റൊരു": 5752,
      "प्रेम": 5753,
      "பெரும்": 5754,
      "ସହର": 5755,
      "عربی": 5756,
      "सर्वाधिक": 5757,
      "##गी": 5758,
      "##ઝ": 5759,
      "##வது": 5760,
      "##சி": 5761,
      "version": 5762,
      "ଏଠାରେ": 5763,
      "ಅಂದರೆ": 5764,
      "late": 5765,
      "ତଥା": 5766,
      "जुलै": 5767,
      "گی": 5768,
      "بند": 5769,
      "அதே": 5770,
      "##ങ്ങളെ": 5771,
      "ಶಿಕ್ಷಣ": 5772,
      "ڪن": 5773,
      "చేసిన": 5774,
      "##सा": 5775,
      "##ee": 5776,
      "##গুলির": 5777,
      "पदार्थ": 5778,
      "മറ്റ്": 5779,
      "##னை": 5780,
      "France": 5781,
      "pehle": 5782,
      "gov": 5783,
      "بلحاظ": 5784,
      "சென்று": 5785,
      "स्वयं": 5786,
      "వాడేందుకు": 5787,
      "జలవనరుల్లోకి": 5788,
      "वहीं": 5789,
      "##િ": 5790,
      "परन्तु": 5791,
      "##नां": 5792,
      "தமிழக": 5793,
      "व्यक्तिगत": 5794,
      "Gram": 5795,
      "announced": 5796,
      "চট্টগ্রাম": 5797,
      "सुद्धा": 5798,
      "##یا": 5799,
      "##லை": 5800,
      "ಸಣ್ಣ": 5801,
      "01": 5802,
      "##ப்பட்ட": 5803,
      "##യില്": 5804,
      "Saint": 5805,
      "production": 5806,
      "১৩": 5807,
      "ಒಬ್ಬ": 5808,
      "ھي": 5809,
      "उपन्यास": 5810,
      "সৈতে": 5811,
      "ਰਹੀ": 5812,
      "થયું": 5813,
      "kai": 5814,
      "राजस्थान": 5815,
      "लगे": 5816,
      "far": 5817,
      "Airport": 5818,
      "எனவே": 5819,
      "considered": 5820,
      "লেখক": 5821,
      "نگار": 5822,
      "କଥାଚିତ୍ରଟିର": 5823,
      "size": 5824,
      "मोठ्या": 5825,
      "இருப்பினும்": 5826,
      "২০০৬": 5827,
      "جمہوریہ": 5828,
      "হয়৷": 5829,
      "chha": 5830,
      "##्ड": 5831,
      "##খন": 5832,
      "##മ": 5833,
      "वर्षों": 5834,
      "ಆರ್": 5835,
      "##هه": 5836,
      "सालमा": 5837,
      "ਇਹਨਾਂ": 5838,
      "چيو": 5839,
      "সাধারণত": 5840,
      "ମୁଖ୍ୟ": 5841,
      "ചലച്ചിത്രങ്ങൾ": 5842,
      "അഥവാ": 5843,
      "ବ୍ୟବହାର": 5844,
      "പുറത്തിറങ്ങിയ": 5845,
      "Great": 5846,
      "प्रस्तुत": 5847,
      "جيئن": 5848,
      "ਹੁਣ": 5849,
      "Canada": 5850,
      "आदर्श": 5851,
      "جیسے": 5852,
      "##களைக்": 5853,
      "మంది": 5854,
      "##ফ": 5855,
      "இந்தியாவில்": 5856,
      "தேர்வுத்": 5857,
      "உண்டு": 5858,
      "##ান": 5859,
      "এদের": 5860,
      "போட்டிகளில்": 5861,
      "স্থানীয়": 5862,
      "२०१८": 5863,
      "सुरुवात": 5864,
      "code": 5865,
      "আগস্ট": 5866,
      "دوسری": 5867,
      "मदद": 5868,
      "ਲੈ": 5869,
      "ನಡುವೆ": 5870,
      "മരിച്ചവർ": 5871,
      "મુજબ": 5872,
      "##ির": 5873,
      "سلطان": 5874,
      "गुजरात": 5875,
      "##ಯೂ": 5876,
      "मानिसहरू": 5877,
      "नंतर": 5878,
      "कलाकार": 5879,
      "mind": 5880,
      "மேல்": 5881,
      "ਕਾਲਜ": 5882,
      "તેનો": 5883,
      "একে": 5884,
      "வாழ்க்கை": 5885,
      "served": 5886,
      "बच्चों": 5887,
      "اڈے": 5888,
      "ಜನರು": 5889,
      "२००९": 5890,
      "##ق": 5891,
      "##চ": 5892,
      "companies": 5893,
      "അവാർഡ്": 5894,
      "##ിരുന്നു": 5895,
      "هوندو": 5896,
      "بین": 5897,
      "२६": 5898,
      "లంకెలు": 5899,
      "न्यू": 5900,
      "Museum": 5901,
      "वजह": 5902,
      "জনসংখ্যার": 5903,
      "इंग्लिश": 5904,
      "চৌধুরী": 5905,
      "२०१३": 5906,
      "तेल": 5907,
      "ਦੇਸ਼": 5908,
      "ମଧ୍ୟରୁ": 5909,
      "##पछि": 5910,
      "முதன்மைத்": 5911,
      "##ਡ": 5912,
      "ane": 5913,
      "##ଳ": 5914,
      "##જ": 5915,
      "اڈا": 5916,
      "করতেন": 5917,
      "అనేక": 5918,
      "ਵਿਆਹ": 5919,
      "ਨਾਂ": 5920,
      "ऊपर": 5921,
      "Art": 5922,
      "நீர்": 5923,
      "मीटर": 5924,
      "গড়ে": 5925,
      "பொருள்": 5926,
      "गोल": 5927,
      "Second": 5928,
      "##ਏ": 5929,
      "##ଟ": 5930,
      "ત્રણ": 5931,
      "jaataa": 5932,
      "হাতে": 5933,
      "ഇന്ത്യ": 5934,
      "unhone": 5935,
      "देशों": 5936,
      "##സി": 5937,
      "হলেও": 5938,
      "करीब": 5939,
      "وچ": 5940,
      "##কারী": 5941,
      "##তম": 5942,
      "##த": 5943,
      "अभिनय": 5944,
      "লগতে": 5945,
      "room": 5946,
      "परीक्षा": 5947,
      "ਫਿਰ": 5948,
      "അവിടെ": 5949,
      "56": 5950,
      "বিশ্ববিদ্যালয়ের": 5951,
      "என்பதை": 5952,
      "बाल": 5953,
      "nie": 5954,
      "1949": 5955,
      "आकार": 5956,
      "রাজনীতিবিদ": 5957,
      "ದೇವಾಲಯ": 5958,
      "model": 5959,
      "मीडिया": 5960,
      "La": 5961,
      "ಈಗ": 5962,
      "ഓരോ": 5963,
      "ওপর": 5964,
      "##தி": 5965,
      "mobile": 5966,
      "లింకులు": 5967,
      "ବଟ": 5968,
      "##ాలను": 5969,
      "ಡಿ": 5970,
      "भाई": 5971,
      "रहता": 5972,
      "ಮೊದಲು": 5973,
      "लाई": 5974,
      "club": 5975,
      "विजेता": 5976,
      "ਵਲੋਂ": 5977,
      "log": 5978,
      "लाभ": 5979,
      "ਸਰਕਾਰ": 5980,
      "মাসে": 5981,
      "మండలంలోని": 5982,
      "२७": 5983,
      "मात्रा": 5984,
      "विरोध": 5985,
      "रहते": 5986,
      "অধিক": 5987,
      "विस्तार": 5988,
      "போர்": 5989,
      "##கு": 5990,
      "दूसरी": 5991,
      "মুসলিম": 5992,
      "##ட": 5993,
      "महाराज": 5994,
      "##தல்": 5995,
      "Music": 5996,
      "மு": 5997,
      "சுமார்": 5998,
      "ٻولي": 5999,
      "##G": 6000,
      "##ான்": 6001,
      "95": 6002,
      "##ner": 6003,
      "कुमाऊँ": 6004,
      "ഇംഗ്ലീഷ്": 6005,
      "صدي": 6006,
      "kaaran": 6007,
      "মূলত": 6008,
      "મકાઈ": 6009,
      "عدد": 6010,
      "বন্ধ": 6011,
      "राजकीय": 6012,
      "Health": 6013,
      "شیخ": 6014,
      "વચ્ચે": 6015,
      "above": 6016,
      "Royal": 6017,
      "இந்தப்": 6018,
      "##ान": 6019,
      "problem": 6020,
      "popular": 6021,
      "পরিচালিত": 6022,
      "அளவு": 6023,
      "വേണ്ടി": 6024,
      "শিক্ষক": 6025,
      "प्रचलित": 6026,
      "यसका": 6027,
      "विमान": 6028,
      "across": 6029,
      "kam": 6030,
      "sab": 6031,
      "سفر": 6032,
      "சிறிய": 6033,
      "##यो": 6034,
      "جنرل": 6035,
      "संस्थान": 6036,
      "पर्व": 6037,
      "सही": 6038,
      "ठीक": 6039,
      "ಸಮಯದಲ್ಲಿ": 6040,
      "soon": 6041,
      "अभ्यास": 6042,
      "05": 6043,
      "আন": 6044,
      "##नि": 6045,
      "ஊராட்சிகள்": 6046,
      "ಇವು": 6047,
      "अर्को": 6048,
      "2011ஆம்": 6049,
      "president": 6050,
      "കാണുക": 6051,
      "પોતાની": 6052,
      "##னின்": 6053,
      "തമിഴ്": 6054,
      "என்ன": 6055,
      "ହେଉଛି": 6056,
      "حیات": 6057,
      "विशिष्ट": 6058,
      "##ter": 6059,
      "प्राकृतिक": 6060,
      "प्रधानमंत्री": 6061,
      "کہتے": 6062,
      "ਪਿਤਾ": 6063,
      "युवा": 6064,
      "##વ": 6065,
      "نمبر": 6066,
      "ସଙ୍ଗୀତ": 6067,
      "இறப்புகள்": 6068,
      "ਘੱਟ": 6069,
      "जसले": 6070,
      "अक्टूबर": 6071,
      "##lu": 6072,
      "##V": 6073,
      "ভাগ": 6074,
      "ఇద్దరు": 6075,
      "##ோ": 6076,
      "सारमञ्जूषा": 6077,
      "ಗ್ರಾಮದಲ್ಲಿ": 6078,
      "##தால்": 6079,
      "कॉलेज": 6080,
      "२००७": 6081,
      "##ಲ": 6082,
      "വഴി": 6083,
      "85": 6084,
      "২০০৭": 6085,
      "বিভাগে": 6086,
      "##രുന്നു": 6087,
      "##സിന്റെ": 6088,
      "ভাষার": 6089,
      "സർക്കാർ": 6090,
      "શરૂ": 6091,
      "ಕಾಲ": 6092,
      "लेखन": 6093,
      "##্ড": 6094,
      "કામ": 6095,
      "San": 6096,
      "##കള്": 6097,
      "further": 6098,
      "produced": 6099,
      "##தை": 6100,
      "ਕਰਨਾ": 6101,
      "जसमा": 6102,
      "Film": 6103,
      "rup": 6104,
      "शाह": 6105,
      "##వ": 6106,
      "১৭": 6107,
      "killed": 6108,
      "position": 6109,
      "saal": 6110,
      "72": 6111,
      "સામે": 6112,
      "खुद": 6113,
      "ਉਮਰ": 6114,
      "##ୟ": 6115,
      "عالمی": 6116,
      "##ye": 6117,
      "09": 6118,
      "region": 6119,
      "54": 6120,
      "సాగని": 6121,
      "Living": 6122,
      "##யால்": 6123,
      "दशक": 6124,
      "આવેલ": 6125,
      "पटक": 6126,
      "low": 6127,
      "least": 6128,
      "##ুর": 6129,
      "आर": 6130,
      "தலைவர்": 6131,
      "তিনটি": 6132,
      "କମ": 6133,
      "ଭାରତର": 6134,
      "जोशी": 6135,
      "1946": 6136,
      "##્ટ": 6137,
      "होकर": 6138,
      "##നു": 6139,
      "کھلاڑی": 6140,
      "माध्यमिक": 6141,
      "പ്രകാരം": 6142,
      "##एं": 6143,
      "ভাবে": 6144,
      "उत्तरी": 6145,
      "കാരണം": 6146,
      "##നി": 6147,
      "मानिन्छ": 6148,
      "கீழ்க்கண்ட": 6149,
      "যাবে": 6150,
      "२८": 6151,
      "ਬਣ": 6152,
      "വർഷം": 6153,
      "লোক": 6154,
      "air": 6155,
      "اثر": 6156,
      "ಮಾಡಲು": 6157,
      "থেকেই": 6158,
      "কোটি": 6159,
      "ஊராட்சியில்": 6160,
      "sent": 6161,
      "##படி": 6162,
      "##ಡಿ": 6163,
      "चल": 6164,
      "vaale": 6165,
      "##வு": 6166,
      "ਧਰਮ": 6167,
      "প্রধানমন্ত্রী": 6168,
      "प्रभावित": 6169,
      "ಉತ್ತಮ": 6170,
      "ରାଜ୍ୟ": 6171,
      "अर्थात्": 6172,
      "पूरे": 6173,
      "ڪو": 6174,
      "ଚିକିତ୍ସା": 6175,
      "##களுடன்": 6176,
      "53": 6177,
      "##ലി": 6178,
      "2015ஆம்": 6179,
      "la": 6180,
      "وغيره": 6181,
      "જન્મ": 6182,
      "என்பவர்": 6183,
      "##ru": 6184,
      "ಅವರಿಗೆ": 6185,
      "##राज": 6186,
      "அளவில்": 6187,
      "নেতা": 6188,
      "यांची": 6189,
      "पिछले": 6190,
      "##னி": 6191,
      "1953": 6192,
      "81": 6193,
      "మూడు": 6194,
      "மன்றத்": 6195,
      "BBC": 6196,
      "##ത്തിലും": 6197,
      "ഉള്ള": 6198,
      "થયા": 6199,
      "ಇದಕ್ಕೆ": 6200,
      "योजनीया": 6201,
      "प्रदर्शित": 6202,
      "தொகுதிகளைக்": 6203,
      "Army": 6204,
      "यथा": 6205,
      "ഏകദേശം": 6206,
      "ಸಾಮಾನ್ಯ": 6207,
      "योगदान": 6208,
      "##ବ": 6209,
      "قرار": 6210,
      "ஆண்டுத்": 6211,
      "Company": 6212,
      "രണ്ടാം": 6213,
      "فتح": 6214,
      "ચણા": 6215,
      "ٽي": 6216,
      "ناول": 6217,
      "করবে": 6218,
      "കൂടി": 6219,
      "கிழக்கு": 6220,
      "आए": 6221,
      "بارے": 6222,
      "##फ": 6223,
      "உட்பட்டதாகும்": 6224,
      "সময়ত": 6225,
      "मैंने": 6226,
      "नियम": 6227,
      "##ಸುವ": 6228,
      "भारतस्य": 6229,
      "ادا": 6230,
      "చేయదగ్గ": 6231,
      "##റ": 6232,
      "आधारमा": 6233,
      "test": 6234,
      "##che": 6235,
      "##ਜ": 6236,
      "سيد": 6237,
      "બી": 6238,
      "addition": 6239,
      "Then": 6240,
      "##land": 6241,
      "Chinese": 6242,
      "##छ": 6243,
      "sex": 6244,
      "##ാൽ": 6245,
      "مئي": 6246,
      "உறுப்பினர்களைத்": 6247,
      "மே": 6248,
      "et": 6249,
      "ఒకరు": 6250,
      "ক্রিকেটে": 6251,
      "খেলোয়াড়": 6252,
      "ଶିକ୍ଷା": 6253,
      "অংশগ্রহণ": 6254,
      "lead": 6255,
      "કરતાં": 6256,
      "hoti": 6257,
      "آیت": 6258,
      "taking": 6259,
      "##ವೇ": 6260,
      "described": 6261,
      "ਅੰਗਰੇਜ਼ੀ": 6262,
      "59": 6263,
      "gave": 6264,
      "image": 6265,
      "அதை": 6266,
      "##াম": 6267,
      "ધરાવતા": 6268,
      "ਬਾਹਰੀ": 6269,
      "ਕਾਵਿ": 6270,
      "Road": 6271,
      "কেউ": 6272,
      "تہٕ": 6273,
      "1942": 6274,
      "উইকেট": 6275,
      "দলে": 6276,
      "ல்": 6277,
      "ಇವರ": 6278,
      "tar": 6279,
      "قبل": 6280,
      "রাজা": 6281,
      "ਫ਼ਿਲਮ": 6282,
      "நூல்": 6283,
      "medical": 6284,
      "places": 6285,
      "وري": 6286,
      "ਵਰਤੋਂ": 6287,
      "प्रधान": 6288,
      "##پ": 6289,
      "##ച്ച": 6290,
      "though": 6291,
      "##बी": 6292,
      "600": 6293,
      "এজন": 6294,
      "Air": 6295,
      "परिचय": 6296,
      "care": 6297,
      "முதலில்": 6298,
      "சிற்றூர்கள்": 6299,
      "quality": 6300,
      "99": 6301,
      "आरोप": 6302,
      "क्याम्पस": 6303,
      "##சன்": 6304,
      "1951": 6305,
      "مکمل": 6306,
      "##ിൽ": 6307,
      "value": 6308,
      "##ರಂದು": 6309,
      "ಮಾಡಿದ": 6310,
      "બની": 6311,
      "##ಯಾಗಿ": 6312,
      "भनेर": 6313,
      "আপনার": 6314,
      "ایسے": 6315,
      "##িন": 6316,
      "While": 6317,
      "जाति": 6318,
      "##ة": 6319,
      "निर्मिती": 6320,
      "फोन": 6321,
      "سیاست": 6322,
      "##২": 6323,
      "ವಿಶೇಷ": 6324,
      "##ान्": 6325,
      "asked": 6326,
      "তাৰ": 6327,
      "course": 6328,
      "قدیم": 6329,
      "##റെ": 6330,
      "হলেন": 6331,
      "தரவின்படி": 6332,
      "থাকেন": 6333,
      "পড়ে": 6334,
      "ਹਰ": 6335,
      "சிற்றூர்களின்": 6336,
      "ਬਲਾਕ": 6337,
      "##ati": 6338,
      "##ரின்": 6339,
      "##ive": 6340,
      "मिला": 6341,
      "वहां": 6342,
      "##ପୁର": 6343,
      "দ্বাৰা": 6344,
      "कैसे": 6345,
      "നിന്നുള്ള": 6346,
      "Robert": 6347,
      "ڪراچي": 6348,
      "ਆਈ": 6349,
      "##ரா": 6350,
      "##ങ്ങള്": 6351,
      "##ane": 6352,
      "बजे": 6353,
      "##gi": 6354,
      "মাঝে": 6355,
      "চলচ্চিত্রে": 6356,
      "चित्रं": 6357,
      "term": 6358,
      "##ओ": 6359,
      "##ाई": 6360,
      "नीचे": 6361,
      "##னார்": 6362,
      "1920": 6363,
      "ஆசிரியர்கள்": 6364,
      "செய்யும்": 6365,
      "اپنا": 6366,
      "दिला": 6367,
      "यादव": 6368,
      "योजनीयम्": 6369,
      "##कै": 6370,
      "ହେବା": 6371,
      "போட்டியில்": 6372,
      "दरम्यान": 6373,
      "তুলে": 6374,
      "நடக்கின்றது": 6375,
      "##ां": 6376,
      "தொடங்கிய": 6377,
      "##லா": 6378,
      "ಮಾಡಿ": 6379,
      "##ில்": 6380,
      "अवस्था": 6381,
      "उपचार": 6382,
      "रेलवे": 6383,
      "کار": 6384,
      "pan": 6385,
      "लिखित": 6386,
      "বি": 6387,
      "पहला": 6388,
      "নির্মিত": 6389,
      "##ലും": 6390,
      "उसी": 6391,
      "కానీ": 6392,
      "तहत": 6393,
      "##U": 6394,
      "##ro": 6395,
      "வெற்றி": 6396,
      "##ley": 6397,
      "সর্বোচ্চ": 6398,
      "অঞ্চলে": 6399,
      "director": 6400,
      "سندن": 6401,
      "ಆರ್ಥಿಕ": 6402,
      "اوہائیو": 6403,
      "வி": 6404,
      "মাধ্যমিক": 6405,
      "చేసి": 6406,
      "##्ने": 6407,
      "अस्पताल": 6408,
      "वीडियो": 6409,
      "##ಣ": 6410,
      "issue": 6411,
      "वर्तते": 6412,
      "ଜଣ": 6413,
      "त्यांचा": 6414,
      "வேறு": 6415,
      "pp": 6416,
      "problems": 6417,
      "প্রাচীন": 6418,
      "स्वामी": 6419,
      "नेतृत्व": 6420,
      "##േ": 6421,
      "اضلاع": 6422,
      "Google": 6423,
      "एप्रिल": 6424,
      "கூட": 6425,
      "इंग्रजी": 6426,
      "ଦିଆଯାଏ": 6427,
      "زمين": 6428,
      "நூல்கள்": 6429,
      "##రు": 6430,
      "Australian": 6431,
      "कहानी": 6432,
      "##ine": 6433,
      "ਵੱਲ": 6434,
      "fact": 6435,
      "উত্তৰ": 6436,
      "##డ్": 6437,
      "மேற்கு": 6438,
      "ಇರುವ": 6439,
      "வகையில்": 6440,
      "##கா": 6441,
      "##ੀਆਂ": 6442,
      "ਜ਼ਿਲ੍ਹਾ": 6443,
      "##১": 6444,
      "فيبروري": 6445,
      "ফিরে": 6446,
      "அங்கு": 6447,
      "ജനനം": 6448,
      "గ్రామాలు": 6449,
      "বিশ্বের": 6450,
      "##sa": 6451,
      "bank": 6452,
      "##ൺ": 6453,
      "##യുള്ള": 6454,
      "Our": 6455,
      "##৫": 6456,
      "##വർ": 6457,
      "সংস্থা": 6458,
      "Church": 6459,
      "##ڙي": 6460,
      "##ರೂ": 6461,
      "যাতে": 6462,
      "दिली": 6463,
      "events": 6464,
      "करत": 6465,
      "मोबाइल": 6466,
      "അക്കാദമി": 6467,
      "##ିକ": 6468,
      "మొదటి": 6469,
      "संरक्षण": 6470,
      "संग्रह": 6471,
      "##ப்பு": 6472,
      "##ப்படும்": 6473,
      "57": 6474,
      "Lord": 6475,
      "##डे": 6476,
      "id": 6477,
      "त्याचे": 6478,
      "##ుల": 6479,
      "##वान्": 6480,
      "Of": 6481,
      "ماڻهن": 6482,
      "matter": 6483,
      "##யம்": 6484,
      "military": 6485,
      "thing": 6486,
      "##ئن": 6487,
      "looking": 6488,
      "BJP": 6489,
      "থাকা": 6490,
      "मत": 6491,
      "हिस्सा": 6492,
      "માત્ર": 6493,
      "জন্মগ্রহণ": 6494,
      "Paul": 6495,
      "Many": 6496,
      "lang": 6497,
      "सिर्फ": 6498,
      "##പ്പ്": 6499,
      "married": 6500,
      "அணி": 6501,
      "حق": 6502,
      "مرد": 6503,
      "पुनः": 6504,
      "அல்லாத": 6505,
      "प्रसाद": 6506,
      "പറയുന്നു": 6507,
      "ಇದರಲ್ಲಿ": 6508,
      "संशोधन": 6509,
      "એમ": 6510,
      "reading": 6511,
      "संत": 6512,
      "ആദ്യമായി": 6513,
      "Other": 6514,
      "58": 6515,
      "ਪਹਿਲਾ": 6516,
      "متعلق": 6517,
      "ஐந்து": 6518,
      "comes": 6519,
      "Act": 6520,
      "ଭାରତ": 6521,
      "جولاءِ": 6522,
      "நவம்பர்": 6523,
      "शिव": 6524,
      "આપવામાં": 6525,
      "பத்தொன்பதாம்": 6526,
      "##ரை": 6527,
      "राजनीति": 6528,
      "release": 6529,
      "ग्रामीण": 6530,
      "ഇപ്പോൾ": 6531,
      "சிறப்பு": 6532,
      "அக்டோபர்": 6533,
      "##ble": 6534,
      "##েন": 6535,
      "اڳ": 6536,
      "লীগ": 6537,
      "ചെയ്യുന്നത്": 6538,
      "संकेतस्थळ": 6539,
      "##جي": 6540,
      "جان": 6541,
      "போல": 6542,
      "already": 6543,
      "##வன்": 6544,
      "सुमारे": 6545,
      "##৩": 6546,
      "Information": 6547,
      "అందుబాటులో": 6548,
      "##வில்லை": 6549,
      "ಕೆ": 6550,
      "मुस्लिम": 6551,
      "डिसेंबर": 6552,
      "ઘણા": 6553,
      "himself": 6554,
      "நாட்டின்": 6555,
      "##ந்த": 6556,
      "space": 6557,
      "সিদ্ধান্ত": 6558,
      "सके": 6559,
      "कप": 6560,
      "आठ": 6561,
      "##os": 6562,
      "পাকিস্তানের": 6563,
      "##ોમાં": 6564,
      "##ns": 6565,
      "words": 6566,
      "##ଠାରେ": 6567,
      "ಅದೇ": 6568,
      "training": 6569,
      "Library": 6570,
      "جگہ": 6571,
      "##نی": 6572,
      "பரம்பரை": 6573,
      "##स्": 6574,
      "२००६": 6575,
      "##ல": 6576,
      "ಇತ್ಯಾದಿ": 6577,
      "নয়": 6578,
      "results": 6579,
      "வெளிவந்த": 6580,
      "Development": 6581,
      "विकिथन": 6582,
      "छोटी": 6583,
      "ಅಲ್ಲಿ": 6584,
      "நாம்": 6585,
      "##पूर": 6586,
      "मोठे": 6587,
      "ദിവസം": 6588,
      "आदेश": 6589,
      "##ey": 6590,
      "শ্রেণীর": 6591,
      "ফেব্রুয়ারি": 6592,
      "बदल": 6593,
      "ਅਮਰੀਕਾ": 6594,
      "योग्य": 6595,
      "விட": 6596,
      "संस्कृतम्": 6597,
      "अत्यंत": 6598,
      "તેણે": 6599,
      "III": 6600,
      "iske": 6601,
      "બીજા": 6602,
      "ٻه": 6603,
      "पर्दछ": 6604,
      "हासिल": 6605,
      "ସାହିତ୍ୟ": 6606,
      "त्यानंतर": 6607,
      "भवन्ति": 6608,
      "लगता": 6609,
      "##tar": 6610,
      "समर्थन": 6611,
      "असलेले": 6612,
      "ವಿರುದ್ಧ": 6613,
      "শব্দ": 6614,
      "वैज्ञानिक": 6615,
      "कवि": 6616,
      "industry": 6617,
      "गते": 6618,
      "جسے": 6619,
      "ರಿಂದ": 6620,
      "अनुभव": 6621,
      "দি": 6622,
      "تحریک": 6623,
      "##৭": 6624,
      "वृद्धि": 6625,
      "पांच": 6626,
      "अच्छा": 6627,
      "ಸಿ": 6628,
      "##డి": 6629,
      "عوام": 6630,
      "வட்டாரத்தில்": 6631,
      "06": 6632,
      "சார்ந்த": 6633,
      "এছাড়া": 6634,
      "##he": 6635,
      "காணப்படும்": 6636,
      "daughter": 6637,
      "పి": 6638,
      "২৪": 6639,
      "भाषाको": 6640,
      "উপস্থিত": 6641,
      "private": 6642,
      "ನಾಲ್ಕು": 6643,
      "ਅਮਰੀਕੀ": 6644,
      "କି": 6645,
      "অন্তর্ভুক্ত": 6646,
      "ਉਸਦੇ": 6647,
      "लहान": 6648,
      "কিলোমিটার": 6649,
      "however": 6650,
      "کیونکہ": 6651,
      "മീറ്റർ": 6652,
      "എൽ": 6653,
      "خواتین": 6654,
      "##ಗಾಗಿ": 6655,
      "writing": 6656,
      "##बा": 6657,
      "future": 6658,
      "ਨਾਵਲ": 6659,
      "heart": 6660,
      "modern": 6661,
      "##را": 6662,
      "ٹی": 6663,
      "ਪੈਦਾ": 6664,
      "கல்லூரி": 6665,
      "ಕಾರಣ": 6666,
      "గృహాల": 6667,
      "##nd": 6668,
      "डिग्री": 6669,
      "देव": 6670,
      "गायक": 6671,
      "آج": 6672,
      "##ائي": 6673,
      "##ନ୍": 6674,
      "##nu": 6675,
      "পারেন": 6676,
      "শক্তি": 6677,
      "इवलेसे": 6678,
      "past": 6679,
      "ڪجهه": 6680,
      "দেয়া": 6681,
      "প্রশাসনিক": 6682,
      "کریں": 6683,
      "తో": 6684,
      "রাখা": 6685,
      "পরবর্তী": 6686,
      "লেখা": 6687,
      "male": 6688,
      "काठमाडौं": 6689,
      "கொண்டது": 6690,
      "गुरु": 6691,
      "ତଥ୍ୟ": 6692,
      "तेन": 6693,
      "##৪": 6694,
      "ভাষায়": 6695,
      "भाजपा": 6696,
      "##க்க": 6697,
      "جتي": 6698,
      "view": 6699,
      "সম্পর্ক": 6700,
      "ਕਰਦੀ": 6701,
      "ham": 6702,
      "wrote": 6703,
      "ऑगस्ट": 6704,
      "##രി": 6705,
      "خصوصیات": 6706,
      "درمیان": 6707,
      "hours": 6708,
      "ಮುಂದೆ": 6709,
      "technology": 6710,
      "कम्पनी": 6711,
      "تا": 6712,
      "##ડા": 6713,
      "सम्राट": 6714,
      "ग्राम": 6715,
      "افغانستان": 6716,
      "स्वरूप": 6717,
      "Year": 6718,
      "Japan": 6719,
      "শিশু": 6720,
      "##৬": 6721,
      "hui": 6722,
      "##పల్లి": 6723,
      "##த்த": 6724,
      "products": 6725,
      "সঙ্গীত": 6726,
      "২০০০": 6727,
      "##రి": 6728,
      "south": 6729,
      "##மே": 6730,
      "پانی": 6731,
      "ರೀತಿಯ": 6732,
      "saktaa": 6733,
      "ମହିଳା": 6734,
      "முன்": 6735,
      "thought": 6736,
      "తర్వాత": 6737,
      "బావుల": 6738,
      "लिखा": 6739,
      "സാഹിത്യ": 6740,
      "పెద్ద": 6741,
      "##ڊ": 6742,
      "ఆంధ్ర": 6743,
      "1936": 6744,
      "दिने": 6745,
      "1939": 6746,
      "##दी": 6747,
      "নদীর": 6748,
      "##પુર": 6749,
      "কৰিছে": 6750,
      "নিউ": 6751,
      "अरब": 6752,
      "ఆఫ్": 6753,
      "##யர்": 6754,
      "মাজত": 6755,
      "##son": 6756,
      "india": 6757,
      "ভালো": 6758,
      "घटनाः": 6759,
      "ಎಂಬುದು": 6760,
      "coming": 6761,
      "व्यवसाय": 6762,
      "భూములు": 6763,
      "##புரம்": 6764,
      "تحت": 6765,
      "खास": 6766,
      "तालुक्यातील": 6767,
      "अयं": 6768,
      "Times": 6769,
      "यातायात": 6770,
      "Africa": 6771,
      "शतक": 6772,
      "ڪي": 6773,
      "ઉપર": 6774,
      "groups": 6775,
      "##से": 6776,
      "व्या": 6777,
      "##জন": 6778,
      "##મી": 6779,
      "చేశారు": 6780,
      "દિવેલી": 6781,
      "ಇನ್": 6782,
      "##யாகும்": 6783,
      "केलेल्या": 6784,
      "அடிப்படையில்": 6785,
      "आय": 6786,
      "رهي": 6787,
      "କରିଛନ୍ତି": 6788,
      "अगस्त": 6789,
      "ભારતના": 6790,
      "##பு": 6791,
      "भागात": 6792,
      "##વી": 6793,
      "jane": 6794,
      "08": 6795,
      "07": 6796,
      "मूळ": 6797,
      "##ട്ട്": 6798,
      "##har": 6799,
      "north": 6800,
      "शादी": 6801,
      "##ुन": 6802,
      "વધારે": 6803,
      "இணைந்து": 6804,
      "অঞ্চলের": 6805,
      "தொழில்": 6806,
      "২১": 6807,
      "1944": 6808,
      "పార్టీ": 6809,
      "points": 6810,
      "भएर": 6811,
      "price": 6812,
      "ऑक्टोबर": 6813,
      "features": 6814,
      "હતાં": 6815,
      "according": 6816,
      "குறிப்புகள்": 6817,
      "হত্যা": 6818,
      "स्वतंत्र": 6819,
      "##ച്ച്": 6820,
      "word": 6821,
      "انعام": 6822,
      "Academy": 6823,
      "##لا": 6824,
      "friends": 6825,
      "##ದ್ದ": 6826,
      "##৮": 6827,
      "63": 6828,
      "tathaa": 6829,
      "নং": 6830,
      "বাংলাদেশে": 6831,
      "##னா": 6832,
      "Europe": 6833,
      "##వి": 6834,
      "##ଇ": 6835,
      "ઘણી": 6836,
      "நடைபெறுகிறது": 6837,
      "increase": 6838,
      "খেলার": 6839,
      "જેને": 6840,
      "##શ": 6841,
      "ଗୀତ": 6842,
      "സംസ്ഥാന": 6843,
      "अनुवाद": 6844,
      "Thomas": 6845,
      "کرتی": 6846,
      "વસ્તી": 6847,
      "پسند": 6848,
      "ନେଇ": 6849,
      "ठाउँमा": 6850,
      "ਸਿੱਖਿਆ": 6851,
      "ఇక్కడ": 6852,
      "ਆਪ": 6853,
      "##H": 6854,
      "agar": 6855,
      "morning": 6856,
      "close": 6857,
      "ڪندو": 6858,
      "বাস": 6859,
      "movie": 6860,
      "ગયા": 6861,
      "##श्च": 6862,
      "62": 6863,
      "Red": 6864,
      "includes": 6865,
      "چند": 6866,
      "##ba": 6867,
      "##ेल": 6868,
      "66": 6869,
      "ମହାନ୍ତି": 6870,
      "songs": 6871,
      "പറഞ്ഞു": 6872,
      "ठिकाणी": 6873,
      "##க்கள்": 6874,
      "تعمیر": 6875,
      "സ്കൂൾ": 6876,
      "అయితే": 6877,
      "খেলা": 6878,
      "states": 6879,
      "फेब्रुवारी": 6880,
      "ફિલ્મ": 6881,
      "तत्कालीन": 6882,
      "واپس": 6883,
      "##লি": 6884,
      "pakistan": 6885,
      "मुक्त": 6886,
      "২০১৯": 6887,
      "madhye": 6888,
      "upon": 6889,
      "সক্ষম": 6890,
      "नवीन": 6891,
      "இந்தியத்": 6892,
      "##دي": 6893,
      "job": 6894,
      "##ದು": 6895,
      "तरफ": 6896,
      "নির্বাচনে": 6897,
      "भौगोलिक": 6898,
      "பாடல்": 6899,
      "ಜೀವನ": 6900,
      "ஒருவர்": 6901,
      "করলে": 6902,
      "call": 6903,
      "##يا": 6904,
      "Pradesh": 6905,
      "##મા": 6906,
      "ಅವರನ್ನು": 6907,
      "गर्दछन्": 6908,
      "کردار": 6909,
      "કડીઓ": 6910,
      "Black": 6911,
      "खेलाडी": 6912,
      "विमानतळ": 6913,
      "whole": 6914,
      "شریف": 6915,
      "hay": 6916,
      "Is": 6917,
      "वर": 6918,
      "मंज़": 6919,
      "ಅವನು": 6920,
      "शुरुआत": 6921,
      "##ांमध्ये": 6922,
      "५७": 6923,
      "ਪਰਿਵਾਰ": 6924,
      "Most": 6925,
      "##ja": 6926,
      "آئیووا": 6927,
      "যোগাযোগ": 6928,
      "elections": 6929,
      "તુવર": 6930,
      "america": 6931,
      "##ંગ": 6932,
      "Western": 6933,
      "مرزا": 6934,
      "क्षेत्रों": 6935,
      "परिषद": 6936,
      "84": 6937,
      "বাবা": 6938,
      "ଥାଏ": 6939,
      "جماعت": 6940,
      "ਕਵੀ": 6941,
      "ಮೂಲ": 6942,
      "તેનું": 6943,
      "1941": 6944,
      "Germany": 6945,
      "କରେ": 6946,
      "هيءُ": 6947,
      "کنساس": 6948,
      "চার": 6949,
      "अंग्रेजी": 6950,
      "முன்னாள்": 6951,
      "win": 6952,
      "सप्टेंबर": 6953,
      "મળી": 6954,
      "worked": 6955,
      "പ്രത്യേക": 6956,
      "বাহ্যিক": 6957,
      "اتر": 6958,
      "କରିବାକୁ": 6959,
      "কলকাতা": 6960,
      "situation": 6961,
      "வகை": 6962,
      "हमें": 6963,
      "##ata": 6964,
      "துடுப்பாட்ட": 6965,
      "ক্লাব": 6966,
      "round": 6967,
      "share": 6968,
      "വീണ്ടും": 6969,
      "ਹਿੱਸਾ": 6970,
      "লৈ": 6971,
      "জাতীয়": 6972,
      "পরিবর্তন": 6973,
      "பெரும்பாலும்": 6974,
      "##ay": 6975,
      "Charles": 6976,
      "board": 6977,
      "##ಳು": 6978,
      "संपूर्ण": 6979,
      "return": 6980,
      "ویب": 6981,
      "മൂന്ന്": 6982,
      "##৯": 6983,
      "computer": 6984,
      "fire": 6985,
      "ghar": 6986,
      "তে": 6987,
      "##ेर": 6988,
      "ಉದಾಹರಣೆಗೆ": 6989,
      "ਆਪਣਾ": 6990,
      "আই": 6991,
      "ਉਸਦੀ": 6992,
      "दें": 6993,
      "କୁହାଯାଏ": 6994,
      "ରଚନା": 6995,
      "अफ": 6996,
      "గురించి": 6997,
      "ಜಿಲ್ಲೆಯ": 6998,
      "بعض": 6999,
      "##മുള്ള": 7000,
      "پیدائش": 7001,
      "ਸਥਿਤ": 7002,
      "yet": 7003,
      "ডি": 7004,
      "Club": 7005,
      "बनाए": 7006,
      "ऊर्जा": 7007,
      "இசை": 7008,
      "रेडियो": 7009,
      "दोस्रो": 7010,
      "similar": 7011,
      "राज": 7012,
      "##াই": 7013,
      "##ये": 7014,
      "ਵਿਸ਼ਵ": 7015,
      "இருந்தார்": 7016,
      "Michael": 7017,
      "மனித": 7018,
      "ବର୍ତ୍ତମାନ": 7019,
      "गर्छ": 7020,
      "இதை": 7021,
      "প্ৰকাশ": 7022,
      "leaders": 7023,
      "blood": 7024,
      "ರಾಜಕೀಯ": 7025,
      "range": 7026,
      "শতাব্দীর": 7027,
      "చరిత్ర": 7028,
      "hua": 7029,
      "રહી": 7030,
      "##પ": 7031,
      "ప్రభుత్వం": 7032,
      "professional": 7033,
      "२९": 7034,
      "તમામ": 7035,
      "సాగులో": 7036,
      "पृथ्वी": 7037,
      "व्यक्ती": 7038,
      "##°": 7039,
      "Street": 7040,
      "দু": 7041,
      "গবেষণা": 7042,
      "getting": 7043,
      "plan": 7044,
      "يعني": 7045,
      "पश्चिमी": 7046,
      "khan": 7047,
      "##മാർ": 7048,
      "ముగ్గురు": 7049,
      "پولینڈ": 7050,
      "dir": 7051,
      "ರಂದು": 7052,
      "કર્યા": 7053,
      "##K": 7054,
      "২০০৪": 7055,
      "Mr": 7056,
      "currently": 7057,
      "moved": 7058,
      "घेऊन": 7059,
      "दिशा": 7060,
      "यादी": 7061,
      "##ടി": 7062,
      "es": 7063,
      "ವರ್ಷಗಳ": 7064,
      "تقسیم": 7065,
      "##কা": 7066,
      "रखने": 7067,
      "২০০৫": 7068,
      "##ous": 7069,
      "seven": 7070,
      "Republic": 7071,
      "##ਵ": 7072,
      "బీడు": 7073,
      "##मुळे": 7074,
      "ইংরেজ": 7075,
      "balen": 7076,
      "భూముల్లో": 7077,
      "04": 7078,
      "##لی": 7079,
      "নামের": 7080,
      "കി": 7081,
      "ایسا": 7082,
      "विधायक": 7083,
      "energy": 7084,
      "hote": 7085,
      "টেলিভিশন": 7086,
      "schools": 7087,
      "Russian": 7088,
      "jis": 7089,
      "har": 7090,
      "manllum": 7091,
      "ત્યાં": 7092,
      "performance": 7093,
      "ജീവിതം": 7094,
      "চলচ্চিত্রের": 7095,
      "हूँ": 7096,
      "पंजाब": 7097,
      "ग्रंथ": 7098,
      "provided": 7099,
      "playing": 7100,
      "கடந்த": 7101,
      "ಆಹಾರ": 7102,
      "##মান": 7103,
      "செப்டம்பர்": 7104,
      "science": 7105,
      "కానివి": 7106,
      "##ram": 7107,
      "##গ": 7108,
      "તાલુકાનું": 7109,
      "##ted": 7110,
      "##var": 7111,
      "پهريون": 7112,
      "संगठन": 7113,
      "Online": 7114,
      "1938": 7115,
      "சமூக": 7116,
      "ক্ষমতা": 7117,
      "Bank": 7118,
      "##ர": 7119,
      "Book": 7120,
      "مشرقی": 7121,
      "society": 7122,
      "mw": 7123,
      "पाया": 7124,
      "personal": 7125,
      "شمار": 7126,
      "रह": 7127,
      "complete": 7128,
      "68": 7129,
      "শুধু": 7130,
      "करोड़": 7131,
      "इनके": 7132,
      "অধ্যাপক": 7133,
      "ڪندا": 7134,
      "পাছত": 7135,
      "##wa": 7136,
      "সামরিক": 7137,
      "படி": 7138,
      "##কৈ": 7139,
      "सो": 7140,
      "जांच": 7141,
      "وٽ": 7142,
      "sakate": 7143,
      "##ഷ്": 7144,
      "##ള്ള": 7145,
      "ਪਾਕਿਸਤਾਨ": 7146,
      "ਜਿੱਥੇ": 7147,
      "प्रशासन": 7148,
      "##ില്ല": 7149,
      "behind": 7150,
      "महत्व": 7151,
      "security": 7152,
      "शहरे": 7153,
      "Although": 7154,
      "##ವರ": 7155,
      "ever": 7156,
      "தொகுதி": 7157,
      "घोषित": 7158,
      "৫০": 7159,
      "فرمایا": 7160,
      "White": 7161,
      "এসে": 7162,
      "temple": 7163,
      "##పు": 7164,
      "जसको": 7165,
      "अञ्चलको": 7166,
      "##லும்": 7167,
      "Today": 7168,
      "سائنس": 7169,
      "ರಾಜ್ಯ": 7170,
      "முறையில்": 7171,
      "##সকলৰ": 7172,
      "பொது": 7173,
      "فن": 7174,
      "ನಡೆದ": 7175,
      "بي": 7176,
      "##ોની": 7177,
      "চরিত্রে": 7178,
      "Asia": 7179,
      "नही": 7180,
      "##ಲು": 7181,
      "হত": 7182,
      "सहायक": 7183,
      "ഇത്തരം": 7184,
      "ସେଠାରେ": 7185,
      "জনপ্রিয়": 7186,
      "मई": 7187,
      "गरि": 7188,
      "છતાં": 7189,
      "એટલે": 7190,
      "એન્ડ": 7191,
      "इत्यादी": 7192,
      "##less": 7193,
      "ਸਿੱਖ": 7194,
      "birth": 7195,
      "विवरण": 7196,
      "ಅವು": 7197,
      "##ണ്ട്": 7198,
      "سن": 7199,
      "ਦਿੱਲੀ": 7200,
      "oru": 7201,
      "Washington": 7202,
      "ஆண்டுகளில்": 7203,
      "ll": 7204,
      "##नगर": 7205,
      "प्रमाणात": 7206,
      "وہاں": 7207,
      "create": 7208,
      "एन": 7209,
      "मिली": 7210,
      "रिकामी": 7211,
      "##ಲ್ಲೂ": 7212,
      "self": 7213,
      "interest": 7214,
      "ସମ୍ମାନ": 7215,
      "ନାମରେ": 7216,
      "##ೀ": 7217,
      "১৯৭১": 7218,
      "ಡಾ": 7219,
      "مضامین": 7220,
      "character": 7221,
      "ভাই": 7222,
      "hard": 7223,
      "टेस्ट": 7224,
      "प्रतियोगिता": 7225,
      "management": 7226,
      "##ਨਾ": 7227,
      "ਇਸਨੂੰ": 7228,
      "Japanese": 7229,
      "##ڙ": 7230,
      "निश्चित": 7231,
      "جلد": 7232,
      "पदक": 7233,
      "rights": 7234,
      "இங்கிலாந்து": 7235,
      "katha": 7236,
      "##মূলক": 7237,
      "നൽകി": 7238,
      "67": 7239,
      "লীগের": 7240,
      "##يون": 7241,
      "अंत": 7242,
      "நிலையம்": 7243,
      "अच्छी": 7244,
      "central": 7245,
      "వద్ద": 7246,
      "##য়ে": 7247,
      "அவன்": 7248,
      "उद्देश्य": 7249,
      "सम्बन्ध": 7250,
      "Two": 7251,
      "##യം": 7252,
      "Dictionary": 7253,
      "बल्कि": 7254,
      "Al": 7255,
      "##ছিল": 7256,
      "अर्थात": 7257,
      "dwaara": 7258,
      "##বোৰ": 7259,
      "Committee": 7260,
      "করছেন": 7261,
      "திரைப்படம்": 7262,
      "saw": 7263,
      "கட்சி": 7264,
      "distance": 7265,
      "పోతోంది": 7266,
      "##नाथ": 7267,
      "ಚಿತ್ರ": 7268,
      "##ir": 7269,
      "जर्मन": 7270,
      "##ଲା": 7271,
      "##િયા": 7272,
      "ٿيل": 7273,
      "স্থানে": 7274,
      "চিকিৎসা": 7275,
      "03": 7276,
      "प्रश्न": 7277,
      "மாநில": 7278,
      "red": 7279,
      "महिलाओं": 7280,
      "might": 7281,
      "##ीत": 7282,
      "Division": 7283,
      "حصو": 7284,
      "प्रशिक्षण": 7285,
      "##ೋ": 7286,
      "##ઈ": 7287,
      "بخش": 7288,
      "ওপৰত": 7289,
      "##ियन": 7290,
      "कहीं": 7291,
      "বই": 7292,
      "02": 7293,
      "movement": 7294,
      "completed": 7295,
      "ರಾಜ್ಯದ": 7296,
      "रन": 7297,
      "இடத்தில்": 7298,
      "चाहते": 7299,
      "एकदिवसीय": 7300,
      "##ଆ": 7301,
      "edition": 7302,
      "संस्करण": 7303,
      "આવેલી": 7304,
      "ڪيا": 7305,
      "##ಂಗ್": 7306,
      "அமைப்பால்": 7307,
      "தொலைக்காட்சி": 7308,
      "गढ़वाल": 7309,
      "61": 7310,
      "शाळा": 7311,
      "1937": 7312,
      "girl": 7313,
      "needs": 7314,
      "سندھ": 7315,
      "लगातार": 7316,
      "ಒಂದೇ": 7317,
      "##ట": 7318,
      "এসব": 7319,
      "ચાર": 7320,
      "Service": 7321,
      "വരുന്ന": 7322,
      "ઇતિહાસ": 7323,
      "##ನಲ್ಲಿ": 7324,
      "ترین": 7325,
      "চালু": 7326,
      "தங்கள்": 7327,
      "नारायण": 7328,
      "বিমান": 7329,
      "##నూ": 7330,
      "ٿيون": 7331,
      "सहायता": 7332,
      "ਰਾਹੀਂ": 7333,
      "ایم": 7334,
      "আপনি": 7335,
      "##கம்": 7336,
      "reached": 7337,
      "निजी": 7338,
      "साम्राज्य": 7339,
      "parts": 7340,
      "##mi": 7341,
      "तुलना": 7342,
      "ಎನ್": 7343,
      "পাঁচ": 7344,
      "পরিবারের": 7345,
      "মোহাম্মদ": 7346,
      "शुरु": 7347,
      "ମସିହା": 7348,
      "##யானது": 7349,
      "ਜਨਵਰੀ": 7350,
      "##വ്": 7351,
      "stage": 7352,
      "##no": 7353,
      "degree": 7354,
      "ملي": 7355,
      "ജെ": 7356,
      "##ઇ": 7357,
      "زمین": 7358,
      "இரண்டாவது": 7359,
      "प्रत्यक्ष": 7360,
      "800": 7361,
      "capital": 7362,
      "ভাল": 7363,
      "ஏற்படும்": 7364,
      "strong": 7365,
      "चला": 7366,
      "जस्ता": 7367,
      "खर्च": 7368,
      "ನ್ನು": 7369,
      "cricket": 7370,
      "पार": 7371,
      "দেখতে": 7372,
      "हूं": 7373,
      "அணியின்": 7374,
      "##তার": 7375,
      "ഇതും": 7376,
      "કારણ": 7377,
      "doing": 7378,
      "ta": 7379,
      "உடல்": 7380,
      "ಮೀ": 7381,
      "##ಕ್ಕಾಗಿ": 7382,
      "ದಿನ": 7383,
      "ഏപ്രിൽ": 7384,
      "அறங்காவலர்": 7385,
      "decision": 7386,
      "भिन्न": 7387,
      "تم": 7388,
      "पीछे": 7389,
      "le": 7390,
      "مل": 7391,
      "ago": 7392,
      "sang": 7393,
      "تاہم": 7394,
      "unke": 7395,
      "developed": 7396,
      "حالت": 7397,
      "##રા": 7398,
      "పై": 7399,
      "अभियान": 7400,
      "ٻيو": 7401,
      "తమ": 7402,
      "മലയാള": 7403,
      "culture": 7404,
      "rate": 7405,
      "देखने": 7406,
      "ஆய்வு": 7407,
      "સમયે": 7408,
      "##ਲੀ": 7409,
      "લગભગ": 7410,
      "प्रमाण": 7411,
      "##ಮ": 7412,
      "ପଢନ୍ତୁ": 7413,
      "ಸಂದರ್ಭದಲ್ಲಿ": 7414,
      "##તી": 7415,
      "ദി": 7416,
      "everyone": 7417,
      "##ોને": 7418,
      "bad": 7419,
      "##ಸಲು": 7420,
      "ஆகியவை": 7421,
      "উপন্যাস": 7422,
      "ਪਾਣੀ": 7423,
      "চলচ্চিত্ৰ": 7424,
      "ప్రముఖ": 7425,
      "feel": 7426,
      "##ਬ": 7427,
      "অভিযোগ": 7428,
      "directed": 7429,
      "phir": 7430,
      "ଜନସଂଖ୍ୟା": 7431,
      "##களிலும்": 7432,
      "##دار": 7433,
      "కేంద్రంలో": 7434,
      "अज्ञात": 7435,
      "যুক্তরাষ্ট্রের": 7436,
      "आंबेडकर": 7437,
      "issues": 7438,
      "##id": 7439,
      "ഇന്ന്": 7440,
      "एतत्": 7441,
      "##ंत": 7442,
      "बल": 7443,
      "त्यात": 7444,
      "மதுரை": 7445,
      "ٹیکساس": 7446,
      "நகரம்": 7447,
      "link": 7448,
      "କରାଯାଇଥିଲା": 7449,
      "प्रकारको": 7450,
      "ਕਹਾਣੀ": 7451,
      "குறிப்பிட்ட": 7452,
      "நல்ல": 7453,
      "1943": 7454,
      "decided": 7455,
      "আহমেদ": 7456,
      "বাজার": 7457,
      "भारतम्": 7458,
      "kintu": 7459,
      "स्": 7460,
      "وارن": 7461,
      "120": 7462,
      "anek": 7463,
      "collection": 7464,
      "বিশিষ্ট": 7465,
      "وغیرہ": 7466,
      "Island": 7467,
      "समाचार": 7468,
      "କେତେକ": 7469,
      "ڈاکٹر": 7470,
      "##ভাৱে": 7471,
      "ஏப்ரல்": 7472,
      "مراد": 7473,
      "सञ्चार": 7474,
      "below": 7475,
      "##ತ್": 7476,
      "হক": 7477,
      "ખૂબ": 7478,
      "તરફ": 7479,
      "देख": 7480,
      "ସନ": 7481,
      "ਅਕਤੂਬਰ": 7482,
      "क्षेत्रको": 7483,
      "चिकित्सा": 7484,
      "कोशिश": 7485,
      "তো": 7486,
      "ضرورت": 7487,
      "##য়া": 7488,
      "بولا": 7489,
      "జరిగిన": 7490,
      "##ഗ്": 7491,
      "##tic": 7492,
      "வந்தது": 7493,
      "##कडे": 7494,
      "1935": 7495,
      "added": 7496,
      "##സിൽ": 7497,
      "तेव्हा": 7498,
      "ڊاڪٽر": 7499,
      "makes": 7500,
      "سرکاری": 7501,
      "آیا": 7502,
      "موت": 7503,
      "ಮುಂತಾದ": 7504,
      "bhartiya": 7505,
      "भारतका": 7506,
      "attack": 7507,
      "ਦੂਜੇ": 7508,
      "آئے": 7509,
      "ಹೊಂದಿರುವ": 7510,
      "प्रतिनिधित्व": 7511,
      "१००": 7512,
      "African": 7513,
      "ਅਰਥ": 7514,
      "برائے": 7515,
      "പോലെ": 7516,
      "బహిరంగంగా": 7517,
      "##ଠାରୁ": 7518,
      "رات": 7519,
      "त्याचा": 7520,
      "ਪੁਰਸਕਾਰ": 7521,
      "योग": 7522,
      "##ள்ள": 7523,
      "Not": 7524,
      "विधान": 7525,
      "outside": 7526,
      "Public": 7527,
      "اُس": 7528,
      "सक्रिय": 7529,
      "ಇನ್ನೂ": 7530,
      "আলোচনা": 7531,
      "opened": 7532,
      "construction": 7533,
      "কয়েকটি": 7534,
      "baar": 7535,
      "largest": 7536,
      "यसमा": 7537,
      "ڈی": 7538,
      "ಅವುಗಳ": 7539,
      "अल": 7540,
      "##ನೆ": 7541,
      "विद्युत": 7542,
      "hit": 7543,
      "लगी": 7544,
      "ਕੀ": 7545,
      "access": 7546,
      "येतात": 7547,
      "வைத்து": 7548,
      "##يو": 7549,
      "মান": 7550,
      "whether": 7551,
      "##തി": 7552,
      "student": 7553,
      "शाखा": 7554,
      "विरुद्ध": 7555,
      "tell": 7556,
      "ജനുവരി": 7557,
      "brought": 7558,
      "معلوم": 7559,
      "brother": 7560,
      "##ामुळे": 7561,
      "cost": 7562,
      "লোকসভা": 7563,
      "இதற்கு": 7564,
      "ਡਾ": 7565,
      "எனப்படும்": 7566,
      "وٺي": 7567,
      "सूत्र": 7568,
      "नोव्हेंबर": 7569,
      "২২": 7570,
      "அதற்கு": 7571,
      "हेतु": 7572,
      "எனவும்": 7573,
      "নানা": 7574,
      "involved": 7575,
      "gram": 7576,
      "oil": 7577,
      "সি": 7578,
      "ତିଥି": 7579,
      "railway": 7580,
      "##ିଆ": 7581,
      "جسم": 7582,
      "##देव": 7583,
      "நூற்றாண்டு": 7584,
      "મેળવી": 7585,
      "انداز": 7586,
      "परियोजना": 7587,
      "পরিবার": 7588,
      "নিজৰ": 7589,
      "குறித்து": 7590,
      "व्यक्त": 7591,
      "भारतात": 7592,
      "जान": 7593,
      "குறிப்பாக": 7594,
      "##ani": 7595,
      "##క్": 7596,
      "बच्चे": 7597,
      "##ସ୍": 7598,
      "विधि": 7599,
      "Lake": 7600,
      "ಒಟ್ಟು": 7601,
      "##िनी": 7602,
      "കേരളത്തിൽ": 7603,
      "आते": 7604,
      "##ُ": 7605,
      "74": 7606,
      "##கை": 7607,
      "76": 7608,
      "Kingdom": 7609,
      "मैदान": 7610,
      "ம்": 7611,
      "وسلم": 7612,
      "व्यावसायिक": 7613,
      "লাখ": 7614,
      "આપી": 7615,
      "kya": 7616,
      "گهڻو": 7617,
      "1931": 7618,
      "ਟੀਮ": 7619,
      "मेरा": 7620,
      "२००४": 7621,
      "অন্তর্গত": 7622,
      "சிவன்": 7623,
      "question": 7624,
      "செல்லும்": 7625,
      "ତା": 7626,
      "આદિવાસી": 7627,
      "देवता": 7628,
      "সংগীত": 7629,
      "ঠিক": 7630,
      "जैन": 7631,
      "ಶತಮಾನದ": 7632,
      "सूर्य": 7633,
      "ਦਸੰਬਰ": 7634,
      "দাবি": 7635,
      "രാഷ്ട്രീയ": 7636,
      "ପୂର୍ବ": 7637,
      "यात": 7638,
      "##ങ്ങളാണ്": 7639,
      "ਪਾਰਟੀ": 7640,
      "ಮೈಸೂರು": 7641,
      "ಎಂ": 7642,
      "آغاز": 7643,
      "নিতে": 7644,
      "Canadian": 7645,
      "മാർച്ച്": 7646,
      "ଅଜ୍ଞାତ": 7647,
      "ਪਹਿਲੇ": 7648,
      "##ଜ": 7649,
      "pay": 7650,
      "समाप्त": 7651,
      "गेला": 7652,
      "blog": 7653,
      "داخل": 7654,
      "चुके": 7655,
      "সারা": 7656,
      "reason": 7657,
      "பெற்றது": 7658,
      "ਵੱਡਾ": 7659,
      "##णा": 7660,
      "നടത്തിയ": 7661,
      "देण्यात": 7662,
      "आनंद": 7663,
      "ବିଜ୍ଞାନ": 7664,
      "ಕಾಲದಲ್ಲಿ": 7665,
      "##पी": 7666,
      "##ਰਾ": 7667,
      "ஆகியோர்": 7668,
      "##ூர்": 7669,
      "દરેક": 7670,
      "অ্যান্ড": 7671,
      "पुस्तके": 7672,
      "కచ్చా": 7673,
      "ಸಾಮಾಜಿಕ": 7674,
      "दृश्य": 7675,
      "पाँच": 7676,
      "ਅੰਦਰ": 7677,
      "मगर": 7678,
      "##ਲਾ": 7679,
      "natural": 7680,
      "ಮಾಡಿದರು": 7681,
      "ਵਿਚੋਂ": 7682,
      "நாடுகள்": 7683,
      "इदं": 7684,
      "ನಮ್ಮ": 7685,
      "শহরে": 7686,
      "karnaa": 7687,
      "রেলওয়ে": 7688,
      "नियंत्रण": 7689,
      "કોઇ": 7690,
      "বলতে": 7691,
      "##ಲ್ಲ": 7692,
      "پٽ": 7693,
      "organization": 7694,
      "##ಟರ್": 7695,
      "బోరుబావుల": 7696,
      "ಇದೇ": 7697,
      "स्पर्धा": 7698,
      "##ಿವೆ": 7699,
      "minutes": 7700,
      "##્": 7701,
      "Awards": 7702,
      "४०": 7703,
      "ed": 7704,
      "sabhi": 7705,
      "இன்": 7706,
      "సంవత్సరం": 7707,
      "होत्या": 7708,
      "##vu": 7709,
      "નહીં": 7710,
      "ਜੁਲਾਈ": 7711,
      "ਮਾਰਚ": 7712,
      "enough": 7713,
      "यदा": 7714,
      "কাম": 7715,
      "##கி": 7716,
      "जीत": 7717,
      "ਵਿਕਾਸ": 7718,
      "78": 7719,
      "سکتے": 7720,
      "રહ્યા": 7721,
      "فلمی": 7722,
      "ذکر": 7723,
      "returned": 7724,
      "પાંચ": 7725,
      "यस्तो": 7726,
      "مير": 7727,
      "ഇവർ": 7728,
      "مثال": 7729,
      "hoga": 7730,
      "শেষে": 7731,
      "স্ত্রী": 7732,
      "സാധാരണ": 7733,
      "ଗ୍ରହଣ": 7734,
      "मान": 7735,
      "قديم": 7736,
      "అది": 7737,
      "Oxford": 7738,
      "ಪೂರ್ವ": 7739,
      "ମସିହାର": 7740,
      "चरित्र": 7741,
      "شائع": 7742,
      "cannot": 7743,
      "##েই": 7744,
      "formed": 7745,
      "##ೊ": 7746,
      "शताब्दी": 7747,
      "সামনে": 7748,
      "रहती": 7749,
      "ایس": 7750,
      "ٿيا": 7751,
      "প্রাক্তন": 7752,
      "ঐতিহাসিক": 7753,
      "71": 7754,
      "आक्रमण": 7755,
      "##چ": 7756,
      "1929": 7757,
      "##റി": 7758,
      "প্রতিষ্ঠা": 7759,
      "నా": 7760,
      "77": 7761,
      "Board": 7762,
      "നല്": 7763,
      "gold": 7764,
      "ନାରୀ": 7765,
      "அதாவது": 7766,
      "లోపే": 7767,
      "রাজধানী": 7768,
      "धारा": 7769,
      "Edition": 7770,
      "treatment": 7771,
      "படம்": 7772,
      "खेलमा": 7773,
      "ஒன்றாகும்": 7774,
      "এলাকার": 7775,
      "உறுப்பினர்கள்": 7776,
      "भारतमा": 7777,
      "प्रयत्न": 7778,
      "एकः": 7779,
      "छन": 7780,
      "स्टार": 7781,
      "##ನಿ": 7782,
      "usually": 7783,
      "1932": 7784,
      "कपूर": 7785,
      "વખત": 7786,
      "ਬੀ": 7787,
      "குறித்த": 7788,
      "##ട്": 7789,
      "69": 7790,
      "খ্রিষ্টাব্দে": 7791,
      "##లా": 7792,
      "##ah": 7793,
      "این": 7794,
      "എന്നിവയാണ്": 7795,
      "disease": 7796,
      "73": 7797,
      "আন্দোলন": 7798,
      "ਹਿੰਦੀ": 7799,
      "Website": 7800,
      "##tt": 7801,
      "മൂന്നു": 7802,
      "खाने": 7803,
      "##ੜ": 7804,
      "প্ৰদান": 7805,
      "جامعہ": 7806,
      "Internet": 7807,
      "##ized": 7808,
      "##ட்டு": 7809,
      "मौत": 7810,
      "##ভ": 7811,
      "انھن": 7812,
      "टिम": 7813,
      "विशाल": 7814,
      "உற்பத்தி": 7815,
      "ఇందులో": 7816,
      "பழைய": 7817,
      "##पि": 7818,
      "Islam": 7819,
      "સંદર્ભો": 7820,
      "Peter": 7821,
      "ਕਿਉਂਕਿ": 7822,
      "২৩": 7823,
      "1934": 7824,
      "##ांत": 7825,
      "ਵੱਲੋਂ": 7826,
      "ଦେଇ": 7827,
      "घेतला": 7828,
      "مسلمانوں": 7829,
      "اسمبلی": 7830,
      "##ीकरण": 7831,
      "either": 7832,
      "especially": 7833,
      "ସବୁ": 7834,
      "निम्न": 7835,
      "ছেলে": 7836,
      "পদক": 7837,
      "ଦକ୍ଷିଣ": 7838,
      "##കളാണ്": 7839,
      "જ્યાં": 7840,
      "महीने": 7841,
      "##رو": 7842,
      "ഉപയോഗിച്ച്": 7843,
      "ਔਰਤਾਂ": 7844,
      "భారతీయ": 7845,
      "পদ্ধতি": 7846,
      "برطانوی": 7847,
      "##வா": 7848,
      "এস": 7849,
      "आचार्य": 7850,
      "अकादमी": 7851,
      "shows": 7852,
      "आयोजन": 7853,
      "Asian": 7854,
      "almost": 7855,
      "##्त": 7856,
      "જોકે": 7857,
      "##ेस": 7858,
      "हुँदै": 7859,
      "border": 7860,
      "ant": 7861,
      "##शन": 7862,
      "उपजिल्लामा": 7863,
      "ভারতে": 7864,
      "ప్రజలు": 7865,
      "வடக்கு": 7866,
      "sale": 7867,
      "समुद्र": 7868,
      "नृत्य": 7869,
      "adhik": 7870,
      "२०००": 7871,
      "રાષ્ટ્રીય": 7872,
      "ଭାଷାରେ": 7873,
      "अक्सर": 7874,
      "কার্যক্রম": 7875,
      "Secretary": 7876,
      "##ನಾ": 7877,
      "ಹಿಂದೆ": 7878,
      "এলাকায়": 7879,
      "##ಂದು": 7880,
      "##ୋ": 7881,
      "قریب": 7882,
      "কর্মকর্তা": 7883,
      "நகர்": 7884,
      "മീ": 7885,
      "നടത്തി": 7886,
      "ବ୍ୟକ୍ତି": 7887,
      "##एको": 7888,
      "ନିର୍ମାଣ": 7889,
      "पासून": 7890,
      "##एँ": 7891,
      "ادبي": 7892,
      "পানি": 7893,
      "account": 7894,
      "ಜೊತೆ": 7895,
      "Journal": 7896,
      "مقصد": 7897,
      "दि": 7898,
      "पाकिस्तानी": 7899,
      "93": 7900,
      "सुधार": 7901,
      "জড়িত": 7902,
      "রাজ্য": 7903,
      "##کی": 7904,
      "सम्पूर्ण": 7905,
      "खिलाड़ी": 7906,
      "শিল্প": 7907,
      "পাৰে": 7908,
      "कसोटी": 7909,
      "82": 7910,
      "মো": 7911,
      "##തു": 7912,
      "২০০৩": 7913,
      "লক্ষ্য": 7914,
      "##ात्मक": 7915,
      "ലഭിച്ചു": 7916,
      "سورہ": 7917,
      "##war": 7918,
      "##ರಿಂದ": 7919,
      "##राव": 7920,
      "##X": 7921,
      "ટકા": 7922,
      "पवित्र": 7923,
      "##യ്": 7924,
      "##নের": 7925,
      "##ವಾಯಿತು": 7926,
      "##టి": 7927,
      "مصر": 7928,
      "##age": 7929,
      "search": 7930,
      "ఇవి": 7931,
      "வேலை": 7932,
      "पहिल्या": 7933,
      "ধারণা": 7934,
      "বাঙালি": 7935,
      "someone": 7936,
      "let": 7937,
      "##നായ": 7938,
      "ಮತ್ತೆ": 7939,
      "dating": 7940,
      "રાજ્ય": 7941,
      "هوندي": 7942,
      "##ൂർ": 7943,
      "પાસે": 7944,
      "سالن": 7945,
      "पर्छ": 7946,
      "२०१९": 7947,
      "यसै": 7948,
      "systems": 7949,
      "Richard": 7950,
      "সম্ভব": 7951,
      "##ंमध्ये": 7952,
      "98": 7953,
      "96": 7954,
      "लीग": 7955,
      "अवसर": 7956,
      "കാലത്ത്": 7957,
      "پارٹی": 7958,
      "नीति": 7959,
      "पात्र": 7960,
      "##ীয়া": 7961,
      "जना": 7962,
      "تعلیمی": 7963,
      "সম্পন্ন": 7964,
      "ভাৰত": 7965,
      "मौजूद": 7966,
      "हवामान": 7967,
      "महान": 7968,
      "पुस्तकहरू": 7969,
      "اختیار": 7970,
      "الاقوامی": 7971,
      "ਸੰਗੀਤ": 7972,
      "कोर्ट": 7973,
      "कानून": 7974,
      "انگريزي": 7975,
      "ಯಾವ": 7976,
      "नया": 7977,
      "হাত": 7978,
      "Commission": 7979,
      "विदेशी": 7980,
      "##ంచి": 7981,
      "کل": 7982,
      "বলেছেন": 7983,
      "ప్రతి": 7984,
      "##গুলোর": 7985,
      "joined": 7986,
      "سخت": 7987,
      "##యం": 7988,
      "deaths": 7989,
      "তেখেতে": 7990,
      "teams": 7991,
      "ইয়াক": 7992,
      "अंक": 7993,
      "saying": 7994,
      "88": 7995,
      "स्थानमा": 7996,
      "ସମସ୍ତ": 7997,
      "কোনও": 7998,
      "सत्ता": 7999,
      "##ಕೊಂಡು": 8000,
      "ಬಾರಿ": 8001,
      "स्वीकार": 8002,
      "##਼": 8003,
      "ततः": 8004,
      "مطلب": 8005,
      "متعلقہ": 8006,
      "கால": 8007,
      "முதல்தர": 8008,
      "धन": 8009,
      "##ଥିଲେ": 8010,
      "towards": 8011,
      "west": 8012,
      "కలిగి": 8013,
      "చిన్న": 8014,
      "##பி": 8015,
      "##க்கான": 8016,
      "اتي": 8017,
      "জয়": 8018,
      "अंतर्गत": 8019,
      "ٻوليءَ": 8020,
      "मूल्य": 8021,
      "മാത്രമേ": 8022,
      "nai": 8023,
      "card": 8024,
      "शैली": 8025,
      "കാണാം": 8026,
      "ജോലി": 8027,
      "ثابت": 8028,
      "अवार्ड": 8029,
      "ਜੂਨ": 8030,
      "कहना": 8031,
      "Hall": 8032,
      "جی": 8033,
      "அப்போது": 8034,
      "ଭୌଗଳିକ": 8035,
      "average": 8036,
      "ਡੀ": 8037,
      "##ూ": 8038,
      "नागरिक": 8039,
      "ಅತ್ಯುತ್ತಮ": 8040,
      "भूमि": 8041,
      "பெருமாள்": 8042,
      "Time": 8043,
      "شيخ": 8044,
      "মাছ": 8045,
      "##പ്പോൾ": 8046,
      "குறைந்த": 8047,
      "محبت": 8048,
      "سلسلہ": 8049,
      "জীৱন": 8050,
      "##ling": 8051,
      "success": 8052,
      "##દ": 8053,
      "دہلی": 8054,
      "డాక్టరు": 8055,
      "Man": 8056,
      "वहाँ": 8057,
      "கதை": 8058,
      "پنسلوانیا": 8059,
      "दर्ज": 8060,
      "ଦେଖନ୍ତୁ": 8061,
      "ಇತಿಹಾಸ": 8062,
      "அடுத்த": 8063,
      "നിന്നു": 8064,
      "கூடிய": 8065,
      "##தா": 8066,
      "খাদ্য": 8067,
      "صحیح": 8068,
      "महाविद्यालय": 8069,
      "വിവാഹം": 8070,
      "بطور": 8071,
      "ਰਾਸ਼ਟਰੀ": 8072,
      "1919": 8073,
      "1928": 8074,
      "عظیم": 8075,
      "Project": 8076,
      "व्यवहार": 8077,
      "1914": 8078,
      "व्यापक": 8079,
      "ನೋಡಿ": 8080,
      "எனினும்": 8081,
      "पत्रिकाको": 8082,
      "உணவு": 8083,
      "ప్రాంతాలు": 8084,
      "ایسی": 8085,
      "सम्मानित": 8086,
      "সমস্যা": 8087,
      "##ರಿಗೆ": 8088,
      "ਬਣਾਇਆ": 8089,
      "ഡിസംബർ": 8090,
      "விட்டு": 8091,
      "runs": 8092,
      "అంటారు": 8093,
      "visit": 8094,
      "கடல்": 8095,
      "पत्रकार": 8096,
      "भौतिक": 8097,
      "અનેક": 8098,
      "si": 8099,
      "याचे": 8100,
      "ಬಂದ": 8101,
      "காண்க": 8102,
      "आदिवासी": 8103,
      "അടുത്ത": 8104,
      "இந்தக்": 8105,
      "ಎಂದರೆ": 8106,
      "##ವಿದೆ": 8107,
      "ছাত্র": 8108,
      "ਮੰਨਿਆ": 8109,
      "উন্নয়ন": 8110,
      "সন্তান": 8111,
      "ৰাষ্ট্ৰীয়": 8112,
      "86": 8113,
      "##ગ": 8114,
      "কেন্দ্রের": 8115,
      "બહાર": 8116,
      "વગેરે": 8117,
      "##ாமல்": 8118,
      "##્ડ": 8119,
      "যেন": 8120,
      "استاد": 8121,
      "##भन्दा": 8122,
      "رکھا": 8123,
      "software": 8124,
      "##ദ്": 8125,
      "মন্দির": 8126,
      "انتخابات": 8127,
      "Ali": 8128,
      "##ح": 8129,
      "বছৰ": 8130,
      "जालपृष्ठ": 8131,
      "எண்": 8132,
      "असेल": 8133,
      "##మ్": 8134,
      "पैदा": 8135,
      "کیلیفورنیا": 8136,
      "ଜୀବ": 8137,
      "source": 8138,
      "track": 8139,
      "net": 8140,
      "ಎಲ್": 8141,
      "ജൂൺ": 8142,
      "product": 8143,
      "ನೀರು": 8144,
      "एंड": 8145,
      "ജനിച്ചു": 8146,
      "மீட்டர்": 8147,
      "activities": 8148,
      "ବହୁ": 8149,
      "ਸਭਾ": 8150,
      "பகுதிகளில்": 8151,
      "ಆಗ": 8152,
      "کرے": 8153,
      "काव्य": 8154,
      "କରିଥିଲା": 8155,
      "ପାଞ୍ଜି": 8156,
      "centre": 8157,
      "একক": 8158,
      "অৱস্থিত": 8159,
      "ਪੇਸ਼": 8160,
      "star": 8161,
      "financial": 8162,
      "करेंगे": 8163,
      "پيو": 8164,
      "ground": 8165,
      "92": 8166,
      "द्वितीय": 8167,
      "സ്ഥാനം": 8168,
      "##me": 8169,
      "Hindu": 8170,
      "Office": 8171,
      "बनेको": 8172,
      "property": 8173,
      "இதனை": 8174,
      "کبھی": 8175,
      "ଦେଖାଯାଏ": 8176,
      "##્ય": 8177,
      "جغرافیہ": 8178,
      "bale": 8179,
      "নিহত": 8180,
      "मिलता": 8181,
      "تر": 8182,
      "చెరువులు": 8183,
      "سامنے": 8184,
      "एशिया": 8185,
      "देखिन्छ": 8186,
      "முழுவதும்": 8187,
      "ريلوي": 8188,
      "##வி": 8189,
      "##ful": 8190,
      "##पर्यंत": 8191,
      "गति": 8192,
      "रिपोर्ट": 8193,
      "साहित्यिक": 8194,
      "వలన": 8195,
      "डा": 8196,
      "કરવાની": 8197,
      "شادی": 8198,
      "આપે": 8199,
      "paper": 8200,
      "સુરત": 8201,
      "1933": 8202,
      "పారుదల": 8203,
      "શહેર": 8204,
      "ಹೆಚ್ಚಾಗಿ": 8205,
      "कायम": 8206,
      "गेली": 8207,
      "ٻن": 8208,
      "آخر": 8209,
      "سنگھ": 8210,
      "મોટી": 8211,
      "জিলাৰ": 8212,
      "روس": 8213,
      "২৬": 8214,
      "required": 8215,
      "ശ്രീ": 8216,
      "ਆਫ਼": 8217,
      "understand": 8218,
      "वर्षः": 8219,
      "मुख्यालय": 8220,
      "নাই": 8221,
      "اکتوبر": 8222,
      "অর্থাৎ": 8223,
      "உயர்": 8224,
      "సి": 8225,
      "اسڪول": 8226,
      "بابت": 8227,
      "वेळी": 8228,
      "घडामोडी": 8229,
      "ପ୍ରତିଶତ": 8230,
      "ହିନ୍ଦୁ": 8231,
      "##मी": 8232,
      "നല്ല": 8233,
      "true": 8234,
      "ऑफ़": 8235,
      "##মা": 8236,
      "প্রভাব": 8237,
      "त्यसको": 8238,
      "##തിന്": 8239,
      "काय": 8240,
      "Your": 8241,
      "##തായി": 8242,
      "پهرين": 8243,
      "Kumar": 8244,
      "tader": 8245,
      "پاڻي": 8246,
      "##ख": 8247,
      "गाविस": 8248,
      "درجہ": 8249,
      "এনে": 8250,
      "चरण": 8251,
      "continued": 8252,
      "##ಜ್": 8253,
      "ନିର୍ବାଚିତ": 8254,
      "सञ्चालन": 8255,
      "নিজ": 8256,
      "##ca": 8257,
      "कर्नाटक": 8258,
      "কবিতা": 8259,
      "فی": 8260,
      "केन्द्रीय": 8261,
      "ਸਮਾਜ": 8262,
      "designed": 8263,
      "##ನ್ನೂ": 8264,
      "ऑस्ट्रेलिया": 8265,
      "सैनिक": 8266,
      "Christian": 8267,
      "parties": 8268,
      "উৎস": 8269,
      "३१": 8270,
      "موجودہ": 8271,
      "அருகில்": 8272,
      "లోకి": 8273,
      "પરથી": 8274,
      "अहिले": 8275,
      "inside": 8276,
      "కాంగ్రెస్": 8277,
      "##ಕೆ": 8278,
      "##୍ୟ": 8279,
      "दिवशी": 8280,
      "##বি": 8281,
      "தேர்தல்": 8282,
      "ଦୁଇ": 8283,
      "ఆర్": 8284,
      "रोमन": 8285,
      "আসেন": 8286,
      "प्रांत": 8287,
      "కాని": 8288,
      "দখল": 8289,
      "رکن": 8290,
      "অধীনে": 8291,
      "दिखाई": 8292,
      "ସୃଷ୍ଟି": 8293,
      "মারা": 8294,
      "1927": 8295,
      "##లోని": 8296,
      "ପ୍ରଥମେ": 8297,
      "ہند": 8298,
      "87": 8299,
      "ويندي": 8300,
      "फूल": 8301,
      "ਕਵਿਤਾ": 8302,
      "শতাংশ": 8303,
      "मांग": 8304,
      "##ಕ್ಕೂ": 8305,
      "elected": 8306,
      "ब्राह्मण": 8307,
      "##ਿਤ": 8308,
      "1918": 8309,
      "ताकि": 8310,
      "त्याची": 8311,
      "##ிய": 8312,
      "যুদ্ধে": 8313,
      "மக்களின்": 8314,
      "বর্ণনা": 8315,
      "##ध": 8316,
      "اعلان": 8317,
      "##സ": 8318,
      "##ળ": 8319,
      "গ্রামের": 8320,
      "ലഘുചിത്രം": 8321,
      "विद्यार्थी": 8322,
      "இலங்கையின்": 8323,
      "सम्बन्धित": 8324,
      "ప్రదేశ్": 8325,
      "Games": 8326,
      "ترقی": 8327,
      "nuun": 8328,
      "बैठक": 8329,
      "সাংস্কৃতিক": 8330,
      "मां": 8331,
      "##ವೆಂದು": 8332,
      "சிறு": 8333,
      "increased": 8334,
      "move": 8335,
      "##ant": 8336,
      "शतकातील": 8337,
      "##जा": 8338,
      "गणना": 8339,
      "اسٽيشن": 8340,
      "இவர்கள்": 8341,
      "church": 8342,
      "##cha": 8343,
      "Its": 8344,
      "beautiful": 8345,
      "মৌসুমে": 8346,
      "கோவில்": 8347,
      "କରିଥିବା": 8348,
      "ସମୟ": 8349,
      "اہل": 8350,
      "शिवाजी": 8351,
      "throughout": 8352,
      "##েল": 8353,
      "ஆட்சி": 8354,
      "একমাত্র": 8355,
      "female": 8356,
      "##మ": 8357,
      "ਸਤੰਬਰ": 8358,
      "PDF": 8359,
      "ভিন্ন": 8360,
      "देना": 8361,
      "बंगाल": 8362,
      "1924": 8363,
      "क्यों": 8364,
      "leave": 8365,
      "গল্প": 8366,
      "মৃত্যুর": 8367,
      "ਸਕਦੇ": 8368,
      "ஆக": 8369,
      "തിരുവനന്തപുരം": 8370,
      "bada": 8371,
      "ಮರ": 8372,
      "போல்": 8373,
      "இன்னும்": 8374,
      "قابل": 8375,
      "##کا": 8376,
      "Since": 8377,
      "اِس": 8378,
      "91": 8379,
      "ಕುರಿತು": 8380,
      "meet": 8381,
      "##ப்பட்டு": 8382,
      "avar": 8383,
      "section": 8384,
      "सर्वोच्च": 8385,
      "വന്നു": 8386,
      "دینے": 8387,
      "മാറി": 8388,
      "ಪಿ": 8389,
      "देखील": 8390,
      "১৯৯০": 8391,
      "##யிலும்": 8392,
      "##மன்": 8393,
      "जनाः": 8394,
      "##ୀୟ": 8395,
      "##ಯಾದ": 8396,
      "বৰ্তমান": 8397,
      "જીવન": 8398,
      "ବିଭାଗ": 8399,
      "दूध": 8400,
      "کیرولائنا": 8401,
      "ಹಿಂದೂ": 8402,
      "##രം": 8403,
      "ସାକ୍ଷରତା": 8404,
      "عورت": 8405,
      "வட": 8406,
      "cases": 8407,
      "##வர்கள்": 8408,
      "leading": 8409,
      "ಆಧುನಿಕ": 8410,
      "اي": 8411,
      "ڪندي": 8412,
      "प्रामाणिक": 8413,
      "মি": 8414,
      "বয়সে": 8415,
      "##னால்": 8416,
      "ಕೃಷಿ": 8417,
      "حساب": 8418,
      "அவர்களின்": 8419,
      "പുറം": 8420,
      "ଗ୍ରେଗୋରି": 8421,
      "अवधि": 8422,
      "వి": 8423,
      "कार": 8424,
      "##டம்": 8425,
      "১৯৯৬": 8426,
      "##ണ": 8427,
      "लामो": 8428,
      "##योः": 8429,
      "##اڻي": 8430,
      "भवन": 8431,
      "आयोग": 8432,
      "کشمیر": 8433,
      "##ৈ": 8434,
      "ఉంటాయి": 8435,
      "offer": 8436,
      "aapako": 8437,
      "সমস্ত": 8438,
      "পথ": 8439,
      "ନିଜର": 8440,
      "1921": 8441,
      "ସ୍ଥାନ": 8442,
      "اول": 8443,
      "অতি": 8444,
      "##ଲେ": 8445,
      "अली": 8446,
      "মিটার": 8447,
      "ನಾನು": 8448,
      "গ্রাম": 8449,
      "kind": 8450,
      "তাহলে": 8451,
      "നവംബർ": 8452,
      "बाबासाहेब": 8453,
      "বিষয়": 8454,
      "amount": 8455,
      "running": 8456,
      "நடைபெற்ற": 8457,
      "ജൂലൈ": 8458,
      "ഒക്ടോബർ": 8459,
      "sure": 8460,
      "२००५": 8461,
      "friend": 8462,
      "ದೇಶದ": 8463,
      "83": 8464,
      "पक्षी": 8465,
      "حدیث": 8466,
      "जॉन": 8467,
      "ايم": 8468,
      "দেখে": 8469,
      "##ization": 8470,
      "ଭଳି": 8471,
      "policy": 8472,
      "Do": 8473,
      "ate": 8474,
      "सय": 8475,
      "গ্ৰহণ": 8476,
      "##ത്തില്": 8477,
      "ವಿ": 8478,
      "କାମ": 8479,
      "##হে": 8480,
      "سائٹ": 8481,
      "##ക്കുന്ന": 8482,
      "পরিণত": 8483,
      "आएका": 8484,
      "২০০২": 8485,
      "துறை": 8486,
      "##য়ের": 8487,
      "اهڙي": 8488,
      "२००१": 8489,
      "##ച്ചു": 8490,
      "incident": 8491,
      "reported": 8492,
      "বের": 8493,
      "##रो": 8494,
      "liya": 8495,
      "pradesh": 8496,
      "भोजन": 8497,
      "જાહેર": 8498,
      "কাজে": 8499,
      "clear": 8500,
      "रक्षा": 8501,
      "ਸਥਾਨ": 8502,
      "कवी": 8503,
      "পাখি": 8504,
      "السلام": 8505,
      "எனக்": 8506,
      "सामूहिक": 8507,
      "কী": 8508,
      "நடந்த": 8509,
      "##டா": 8510,
      "नाहीत": 8511,
      "##sha": 8512,
      "மணி": 8513,
      "पहचान": 8514,
      "तथापि": 8515,
      "தேதி": 8516,
      "کانپوءِ": 8517,
      "doctor": 8518,
      "सर्वश्रेष्ठ": 8519,
      "ছিলো": 8520,
      "जिनमें": 8521,
      "شام": 8522,
      "आवाज": 8523,
      "એવી": 8524,
      "त्रिभुवन": 8525,
      "ਰੱਖਿਆ": 8526,
      "नजर": 8527,
      "network": 8528,
      "چھ": 8529,
      "ஆண்டுகள்": 8530,
      "বাহিনী": 8531,
      "இவற்றையும்": 8532,
      "east": 8533,
      "##টোৰ": 8534,
      "૧૦": 8535,
      "green": 8536,
      "evam": 8537,
      "husband": 8538,
      "दलित": 8539,
      "आपण": 8540,
      "ಪ್ರಮಾಣದ": 8541,
      "कलियुग": 8542,
      "କାରଣ": 8543,
      "##ari": 8544,
      "famous": 8545,
      "##ಪ್": 8546,
      "డి": 8547,
      "प्रधानमन्त्री": 8548,
      "سياسي": 8549,
      "river": 8550,
      "خانہ": 8551,
      "पर्वत": 8552,
      "നാഷണൽ": 8553,
      "நாடு": 8554,
      "بلوچستان": 8555,
      "من": 8556,
      "arrested": 8557,
      "prati": 8558,
      "unhen": 8559,
      "आपकी": 8560,
      "knowledge": 8561,
      "बोर्ड": 8562,
      "वापस": 8563,
      "##bi": 8564,
      "##ಿದೆ": 8565,
      "yadi": 8566,
      "فلمیں": 8567,
      "ആം": 8568,
      "1900": 8569,
      "Even": 8570,
      "Director": 8571,
      "##களைப்": 8572,
      "Also": 8573,
      "##دو": 8574,
      "اولاد": 8575,
      "Italian": 8576,
      "جواب": 8577,
      "ପରି": 8578,
      "Foundation": 8579,
      "संमेलन": 8580,
      "Love": 8581,
      "கலை": 8582,
      "دسمبر": 8583,
      "അറിയപ്പെടുന്നു": 8584,
      "واشنگٹن": 8585,
      "दूसरा": 8586,
      "##ள்ளது": 8587,
      "stop": 8588,
      "ആദ്യം": 8589,
      "نماز": 8590,
      "ಸ್ಥಳೀಯ": 8591,
      "bangladesh": 8592,
      "##ണം": 8593,
      "bring": 8594,
      "##య్య": 8595,
      "ஜி": 8596,
      "پير": 8597,
      "الدين": 8598,
      "निर्मित": 8599,
      "Texas": 8600,
      "1925": 8601,
      "lekar": 8602,
      "##सन": 8603,
      "یہی": 8604,
      "daily": 8605,
      "पालन": 8606,
      "مضمون": 8607,
      "जगातील": 8608,
      "উৎপাদন": 8609,
      "##ेट": 8610,
      "##ۃ": 8611,
      "কাহিনী": 8612,
      "stories": 8613,
      "ذريعي": 8614,
      "আয়তন": 8615,
      "واقعات": 8616,
      "Spanish": 8617,
      "دیتے": 8618,
      "ତାହା": 8619,
      "##বাদ": 8620,
      "Spain": 8621,
      "प्रस्ताव": 8622,
      "కన్నా": 8623,
      "जनरल": 8624,
      "मोठा": 8625,
      "ମିଶ୍ର": 8626,
      "নিশ্চিত": 8627,
      "قبول": 8628,
      "હેઠળ": 8629,
      "##ದರು": 8630,
      "ವಿದ್ಯುತ್": 8631,
      "##ത്തി": 8632,
      "तुम": 8633,
      "teen": 8634,
      "##be": 8635,
      "அரசின்": 8636,
      "आरम्भ": 8637,
      "ਚਾਰ": 8638,
      "২৮": 8639,
      "Russia": 8640,
      "##دا": 8641,
      "தந்தை": 8642,
      "cause": 8643,
      "##ळे": 8644,
      "##ಿಕೆ": 8645,
      "##پور": 8646,
      "Technology": 8647,
      "নেয়": 8648,
      "##ലാണ്": 8649,
      "ಜಿ": 8650,
      "फल": 8651,
      "उम्र": 8652,
      "hospital": 8653,
      "குழு": 8654,
      "##তি": 8655,
      "सक्छ": 8656,
      "ମାସ": 8657,
      "প্রতিটি": 8658,
      "উপাত্ত": 8659,
      "higher": 8660,
      "সংগ্ৰহ": 8661,
      "##ਹ": 8662,
      "Law": 8663,
      "##ाणां": 8664,
      "اگست": 8665,
      "staff": 8666,
      "માહિતી": 8667,
      "करीत": 8668,
      "जर्मनी": 8669,
      "##ങ്ങളിലും": 8670,
      "येत": 8671,
      "##ent": 8672,
      "उससे": 8673,
      "جولائی": 8674,
      "everything": 8675,
      "शासकीय": 8676,
      "सहभागी": 8677,
      "بیسویں": 8678,
      "##yu": 8679,
      "##వారు": 8680,
      "ഇന്ത്യയിൽ": 8681,
      "##ഫ്": 8682,
      "easy": 8683,
      "author": 8684,
      "त्यसपछि": 8685,
      "eyes": 8686,
      "செய்த": 8687,
      "సమయంలో": 8688,
      "बेला": 8689,
      "##్లో": 8690,
      "practice": 8691,
      "সুবিধা": 8692,
      "असताना": 8693,
      "केवळ": 8694,
      "ڪيل": 8695,
      "ভিত্তি": 8696,
      "পিতা": 8697,
      "##पूर्ण": 8698,
      "আক্রমণ": 8699,
      "ਇੱਥੇ": 8700,
      "##tan": 8701,
      "##way": 8702,
      "میری": 8703,
      "अशोक": 8704,
      "##यः": 8705,
      "बता": 8706,
      "પ્રમાણે": 8707,
      "##வ்": 8708,
      "ଯୋଗୁ": 8709,
      "நாடுகளில்": 8710,
      "##ಿಸಿ": 8711,
      "##ut": 8712,
      "മുൻ": 8713,
      "कश्मीर": 8714,
      "##ரம்": 8715,
      "धीरे": 8716,
      "1922": 8717,
      "खोज": 8718,
      "रे": 8719,
      "حال": 8720,
      "##झ": 8721,
      "সংস্কৃতি": 8722,
      "കഥ": 8723,
      "വിദ്യാഭ്യാസം": 8724,
      "நகரில்": 8725,
      "پانچ": 8726,
      "எழுதிய": 8727,
      "##ుని": 8728,
      "##co": 8729,
      "শিল্পী": 8730,
      "କରୁଥିଲେ": 8731,
      "relationship": 8732,
      "પહેલા": 8733,
      "خیال": 8734,
      "টেস্টে": 8735,
      "lives": 8736,
      "समुदाय": 8737,
      "هتي": 8738,
      "అన్ని": 8739,
      "ಮೇಲಿನ": 8740,
      "کوشش": 8741,
      "##্ত": 8742,
      "ರೀತಿಯಲ್ಲಿ": 8743,
      "சர்வதேச": 8744,
      "##شن": 8745,
      "amar": 8746,
      "##ara": 8747,
      "ନିର୍ମିତ": 8748,
      "खेळ": 8749,
      "महत्त्वाच्या": 8750,
      "instead": 8751,
      "ਰਚਨਾ": 8752,
      "अख": 8753,
      "পুত্র": 8754,
      "সংবাদ": 8755,
      "جارجیا": 8756,
      "ಬಾಹ್ಯ": 8757,
      "ٿيندي": 8758,
      "दोन्ही": 8759,
      "##ಲ್ಲೇ": 8760,
      "1917": 8761,
      "force": 8762,
      "தமது": 8763,
      "##ute": 8764,
      "##गाव": 8765,
      "महात्मा": 8766,
      "##तो": 8767,
      "गणेश": 8768,
      "लगाया": 8769,
      "race": 8770,
      "anti": 8771,
      "entire": 8772,
      "पाटील": 8773,
      "गठन": 8774,
      "ਜਾਣਿਆ": 8775,
      "مئی": 8776,
      "మురుగునీటి": 8777,
      "വിഭാഗം": 8778,
      "இருக்க": 8779,
      "सुरक्षित": 8780,
      "itself": 8781,
      "##ബ്": 8782,
      "एक्सप्रेस": 8783,
      "baa": 8784,
      "Assembly": 8785,
      "ਆਫ": 8786,
      "ಗ್ರಾಮದ": 8787,
      "जैसी": 8788,
      "##ندا": 8789,
      "ਮੈਂਬਰ": 8790,
      "संस्थापक": 8791,
      "eds": 8792,
      "##मेव": 8793,
      "ਨਾਟਕ": 8794,
      "##ரும்": 8795,
      "नं": 8796,
      "##ாலும்": 8797,
      "ھئي": 8798,
      "79": 8799,
      "##രും": 8800,
      "സംഗീതം": 8801,
      "असल्याने": 8802,
      "##ಗಿ": 8803,
      "تان": 8804,
      "পশ্চিমে": 8805,
      "congress": 8806,
      "ज्या": 8807,
      "ଦଳ": 8808,
      "ڏکڻ": 8809,
      "ପ୍ରତି": 8810,
      "பாதுகாப்பு": 8811,
      "##రా": 8812,
      "હવે": 8813,
      "सुबह": 8814,
      "નું": 8815,
      "ചിത്രങ്ങൾ": 8816,
      "بنایا": 8817,
      "##ਪੁਰ": 8818,
      "Social": 8819,
      "primary": 8820,
      "நோய்": 8821,
      "##ായി": 8822,
      "صلی": 8823,
      "மார்ச்": 8824,
      "##ਗ": 8825,
      "موقع": 8826,
      "changes": 8827,
      "##ട": 8828,
      "परीक्षण": 8829,
      "##ਣਾ": 8830,
      "1923": 8831,
      "##टा": 8832,
      "रुपए": 8833,
      "لکھا": 8834,
      "दैनिक": 8835,
      "সংযুক্ত": 8836,
      "base": 8837,
      "##ತಿ": 8838,
      "pdf": 8839,
      "1926": 8840,
      "##లి": 8841,
      "ستمبر": 8842,
      "نامکمل": 8843,
      "അന്താരാഷ്ട്ര": 8844,
      "বাইরে": 8845,
      "लक्ष्य": 8846,
      "effect": 8847,
      "अनुमति": 8848,
      "##ിരുന്ന": 8849,
      "केंद्रीय": 8850,
      "অনুষ্ঠান": 8851,
      "যুদ্ধের": 8852,
      "##ال": 8853,
      "गुण": 8854,
      "বড়": 8855,
      "Paris": 8856,
      "700": 8857,
      "துணை": 8858,
      "निर्देशक": 8859,
      "##ातून": 8860,
      "پاک": 8861,
      "ਵੱਡੇ": 8862,
      "radio": 8863,
      "বৈজ্ঞানিক": 8864,
      "Modi": 8865,
      "##ನೆಯ": 8866,
      "গ্রামে": 8867,
      "त॒": 8868,
      "ਗੱਲ": 8869,
      "हमेशा": 8870,
      "सफलता": 8871,
      "##ಿಸುವ": 8872,
      "##ئر": 8873,
      "অভিষেক": 8874,
      "##ांवर": 8875,
      "त्यसैले": 8876,
      "خط": 8877,
      "सचिव": 8878,
      "1912": 8879,
      "##ாக": 8880,
      "మాత్రమే": 8881,
      "94": 8882,
      "terms": 8883,
      "ପୂର୍ବରୁ": 8884,
      "##গত": 8885,
      "گل": 8886,
      "##ക്കാൻ": 8887,
      "উঠে": 8888,
      "takes": 8889,
      "ಅಂಡ್": 8890,
      "అంటే": 8891,
      "உள்ளிட்ட": 8892,
      "پنھنجي": 8893,
      "##യിലാണ്": 8894,
      "ಸಂಯುಕ್ತ": 8895,
      "sabase": 8896,
      "##ପ": 8897,
      "مذہبی": 8898,
      "20th": 8899,
      "appeared": 8900,
      "वस्तु": 8901,
      "ਦੇਣ": 8902,
      "##டை": 8903,
      "cinema": 8904,
      "ചലച്ചിത്ര": 8905,
      "জীবনের": 8906,
      "याची": 8907,
      "प्यार": 8908,
      "রেখে": 8909,
      "নিজস্ব": 8910,
      "عوامی": 8911,
      "காரணம்": 8912,
      "विभाजन": 8913,
      "അവ": 8914,
      "ଜନତା": 8915,
      "ట్రాక్టరు": 8916,
      "kiye": 8917,
      "talk": 8918,
      "ادارے": 8919,
      "बाबा": 8920,
      "function": 8921,
      "অধিকার": 8922,
      "##কার": 8923,
      "திருமணம்": 8924,
      "ବ୍ୟବ": 8925,
      "நீங்கள்": 8926,
      "ವಿಜಯಪುರ": 8927,
      "economic": 8928,
      "Muslim": 8929,
      "संकेत": 8930,
      "सैन्य": 8931,
      "##ൂ": 8932,
      "കാണപ്പെടുന്നു": 8933,
      "येतो": 8934,
      "गरेकी": 8935,
      "ইংৰাজী": 8936,
      "معلومات": 8937,
      "गैर": 8938,
      "Mumbai": 8939,
      "Kerala": 8940,
      "ਅੱਜ": 8941,
      "##गे": 8942,
      "Cambridge": 8943,
      "राहुल": 8944,
      "वर्षको": 8945,
      "सारे": 8946,
      "##ुर": 8947,
      "प्राप्ताः": 8948,
      "##നം": 8949,
      "families": 8950,
      "কিংবা": 8951,
      "campaign": 8952,
      "watch": 8953,
      "کرکے": 8954,
      "ஆசிரியர்": 8955,
      "ਇਸਦੇ": 8956,
      "via": 8957,
      "ट्रेन": 8958,
      "बिजली": 8959,
      "##یت": 8960,
      "மில்லியன்": 8961,
      "भारी": 8962,
      "although": 8963,
      "क्रममा": 8964,
      "##وی": 8965,
      "##ಸುತ್ತದೆ": 8966,
      "দিক": 8967,
      "ରାଜା": 8968,
      "##വുമായി": 8969,
      "ପୂଜା": 8970,
      "शुद्ध": 8971,
      "পরাজিত": 8972,
      "ڏني": 8973,
      "photo": 8974,
      "loss": 8975,
      "##मै": 8976,
      "সাহায্য": 8977,
      "train": 8978,
      "Early": 8979,
      "##നാണ്": 8980,
      "recorded": 8981,
      "স্বীকৃতি": 8982,
      "ਹੋਵੇ": 8983,
      "##രുടെ": 8984,
      "از": 8985,
      "पति": 8986,
      "کونسل": 8987,
      "২৭": 8988,
      "آکھ": 8989,
      "تحصیل": 8990,
      "ಅದರಲ್ಲಿ": 8991,
      "বিবাহ": 8992,
      "राशि": 8993,
      "believe": 8994,
      "நடிகர்": 8995,
      "রাষ্ট্রপতি": 8996,
      "خبر": 8997,
      "স্নাতক": 8998,
      "##ंड": 8999,
      "97": 9000,
      "89": 9001,
      "sometimes": 9002,
      "ಆದ್ದರಿಂದ": 9003,
      "##नं": 9004,
      "goal": 9005,
      "##ତି": 9006,
      "आफ्ना": 9007,
      "hands": 9008,
      "ମାତ୍ର": 9009,
      "वनस्पति": 9010,
      "चालू": 9011,
      "வழியாக": 9012,
      "पोस्ट": 9013,
      "पाच": 9014,
      "##iya": 9015,
      "याचा": 9016,
      "##ंट": 9017,
      "நேரம்": 9018,
      "rest": 9019,
      "parents": 9020,
      "போட்டிகளிலும்": 9021,
      "गाँउ": 9022,
      "der": 9023,
      "##ીય": 9024,
      "കോഴിക്കോട്": 9025,
      "আরব": 9026,
      "languages": 9027,
      "എന്നത്": 9028,
      "##सिंह": 9029,
      "ହୋଇପାରେ": 9030,
      "ਪ੍ਰਸਿੱਧ": 9031,
      "பெயரில்": 9032,
      "பிரதேச": 9033,
      "અનુસાર": 9034,
      "बसोबास": 9035,
      "தஞ்சாவூர்": 9036,
      "##ଶ": 9037,
      "નવા": 9038,
      "##ന്ന": 9039,
      "राय": 9040,
      "تعلقي": 9041,
      "દૂર": 9042,
      "फक्त": 9043,
      "কর্মজীবন": 9044,
      "ধর্ম": 9045,
      "##ଲ୍": 9046,
      "pressure": 9047,
      "##لي": 9048,
      "changed": 9049,
      "anything": 9050,
      "##থ": 9051,
      "##van": 9052,
      "ਜਿਹਨਾਂ": 9053,
      "கொண்டுள்ளார்": 9054,
      "##ಟಿ": 9055,
      "##డ": 9056,
      "try": 9057,
      "هيٺ": 9058,
      "ସ୍ଥାନରେ": 9059,
      "শিক্ষার্থী": 9060,
      "##سی": 9061,
      "آواز": 9062,
      "১৯৯৯": 9063,
      "##று": 9064,
      "संघर्ष": 9065,
      "##ங்களுக்கு": 9066,
      "continue": 9067,
      "eight": 9068,
      "ਇਲਾਵਾ": 9069,
      "વરિયાળી": 9070,
      "മുഹമ്മദ്": 9071,
      "##പ്": 9072,
      "##দা": 9073,
      "होंगे": 9074,
      "##ळी": 9075,
      "ഡോ": 9076,
      "প্রায়": 9077,
      "forces": 9078,
      "##ಗಳಿವೆ": 9079,
      "ಭಾಷೆ": 9080,
      "১০০": 9081,
      "ಹಿಂದಿನ": 9082,
      "##ary": 9083,
      "राम्रो": 9084,
      "whose": 9085,
      "ਵਿਸ਼ੇਸ਼": 9086,
      "தெற்கு": 9087,
      "জন্যে": 9088,
      "details": 9089,
      "مرکزی": 9090,
      "यद्यपि": 9091,
      "गौतम": 9092,
      "আওয়ামী": 9093,
      "نسل": 9094,
      "శాసనసభ": 9095,
      "Medical": 9096,
      "તેવી": 9097,
      "ಇತರೆ": 9098,
      "लिमिटेड": 9099,
      "ଏଥିରେ": 9100,
      "മൂലം": 9101,
      "साझा": 9102,
      "इतना": 9103,
      "لکيل": 9104,
      "sold": 9105,
      "आंदोलन": 9106,
      "آزادی": 9107,
      "প্ৰতি": 9108,
      "নির্দিষ্ট": 9109,
      "##W": 9110,
      "performed": 9111,
      "اداکار": 9112,
      "தொடர்பான": 9113,
      "उपस्थित": 9114,
      "தவிர": 9115,
      "ఆలయం": 9116,
      "இடங்களில்": 9117,
      "शारीरिक": 9118,
      "giving": 9119,
      "uske": 9120,
      "ഫെബ്രുവരി": 9121,
      "সকলো": 9122,
      "##గ": 9123,
      "ಪ್ರಾಥಮಿಕ": 9124,
      "translation": 9125,
      "ಮಾಹಿತಿ": 9126,
      "ਭੂਮਿਕਾ": 9127,
      "রচনা": 9128,
      "शिक्षक": 9129,
      "മലയാളം": 9130,
      "इनमें": 9131,
      "##বে": 9132,
      "తూర్పు": 9133,
      "பள்ளி": 9134,
      "سي": 9135,
      "##ਤੀ": 9136,
      "सध्या": 9137,
      "ڇڏيو": 9138,
      "ବିବାହ": 9139,
      "##ूर": 9140,
      "మంచి": 9141,
      "هجي": 9142,
      "Arts": 9143,
      "বার": 9144,
      "ଇଂରାଜୀ": 9145,
      "Video": 9146,
      "அவருக்கு": 9147,
      "কেন্দ্রটি": 9148,
      "Sir": 9149,
      "idea": 9150,
      "श्रेष्ठ": 9151,
      "برطانیہ": 9152,
      "ஆண்டின்": 9153,
      "theory": 9154,
      "##லில்": 9155,
      "মাস": 9156,
      "राजमार्ग": 9157,
      "##यर": 9158,
      "wanted": 9159,
      "ಭೂಮಿ": 9160,
      "rather": 9161,
      "ਮਸ਼ਹੂਰ": 9162,
      "##लो": 9163,
      "टक्के": 9164,
      "लागले": 9165,
      "ಗಳಲ್ಲಿ": 9166,
      "কৰে৷": 9167,
      "आपले": 9168,
      "ഒന്നാം": 9169,
      "##ായ": 9170,
      "unit": 9171,
      "चुका": 9172,
      "USA": 9173,
      "இவ்வாறு": 9174,
      "Facebook": 9175,
      "##ಸಿದ": 9176,
      "ten": 9177,
      "ہجری": 9178,
      "2nd": 9179,
      "Special": 9180,
      "native": 9181,
      "previous": 9182,
      "names": 9183,
      "##ଙ୍ଗ": 9184,
      "এগৰাকী": 9185,
      "Nepal": 9186,
      "Grand": 9187,
      "ହୋଇଛି": 9188,
      "ব্যাপক": 9189,
      "##ڑ": 9190,
      "##ಲೆ": 9191,
      "वातावरण": 9192,
      "चीनी": 9193,
      "আবু": 9194,
      "पर्यंत": 9195,
      "एल": 9196,
      "प्राप्तः": 9197,
      "পরিষদ": 9198,
      "उत्तम": 9199,
      "प्रचार": 9200,
      "##ವ್": 9201,
      "##ot": 9202,
      "मनुष्य": 9203,
      "لحاظ": 9204,
      "قیام": 9205,
      "তেখেতৰ": 9206,
      "##pa": 9207,
      "സമയം": 9208,
      "1st": 9209,
      "اخبار": 9210,
      "என்றால்": 9211,
      "স্বাস্থ্য": 9212,
      "क्रि": 9213,
      "review": 9214,
      "نواز": 9215,
      "তেওঁক": 9216,
      "nature": 9217,
      "##বার": 9218,
      "വച്ച്": 9219,
      "##્યા": 9220,
      "##pe": 9221,
      "##les": 9222,
      "hum": 9223,
      "ਉੱਤਰ": 9224,
      "##jan": 9225,
      "அவருடைய": 9226,
      "کتب": 9227,
      "नियमित": 9228,
      "##ڻي": 9229,
      "مجھے": 9230,
      "##हा": 9231,
      "ଇତ୍ୟାଦି": 9232,
      "পরিকল্পনা": 9233,
      "தென்": 9234,
      "ইংল্যান্ড": 9235,
      "കൃതികൾ": 9236,
      "அரசியல்வாதிகள்": 9237,
      "ಚಲನಚಿತ್ರ": 9238,
      "appointed": 9239,
      "निर्माता": 9240,
      "key": 9241,
      "जैसा": 9242,
      "सर": 9243,
      "##യർ": 9244,
      "رکھتے": 9245,
      "జిల్లాలోని": 9246,
      "plant": 9247,
      "##తి": 9248,
      "Temple": 9249,
      "dekha": 9250,
      "aami": 9251,
      "हवाई": 9252,
      "علاقوں": 9253,
      "वैदिक": 9254,
      "ಅಲ್ಲದೆ": 9255,
      "भाव": 9256,
      "देती": 9257,
      "శాశ్వత": 9258,
      "पुराने": 9259,
      "ਕਲਾ": 9260,
      "সিলেট": 9261,
      "காலனி": 9262,
      "ವ್ಯವಸ್ಥೆ": 9263,
      "एफ": 9264,
      "നായർ": 9265,
      "इच्छा": 9266,
      "minute": 9267,
      "असलेली": 9268,
      "ભાષા": 9269,
      "అయిన": 9270,
      "அதனால்": 9271,
      "##সকলে": 9272,
      "trade": 9273,
      "মিলিয়ন": 9274,
      "ని": 9275,
      "bit": 9276,
      "beginning": 9277,
      "##q": 9278,
      "بنیاد": 9279,
      "jivan": 9280,
      "ವರ್ಷದ": 9281,
      "##ਪ": 9282,
      "سانچہ": 9283,
      "କେବଳ": 9284,
      "କଂଗ୍ରେସ": 9285,
      "నేను": 9286,
      "##യിലേക്ക്": 9287,
      "ରୂପେ": 9288,
      "Championship": 9289,
      "కాలువలు": 9290,
      "##ಗ": 9291,
      "ପୁରୁଷ": 9292,
      "பெற்று": 9293,
      "##শন": 9294,
      "##tor": 9295,
      "मुताबिक": 9296,
      "##ೀಯ": 9297,
      "forward": 9298,
      "ಯುನೈಟೆಡ್": 9299,
      "میرے": 9300,
      "ଦେବୀ": 9301,
      "##til": 9302,
      "गर्छन्": 9303,
      "കോളേജ്": 9304,
      "ورجینیا": 9305,
      "##دی": 9306,
      "ମିଳିଥିଲା": 9307,
      "خيال": 9308,
      "check": 9309,
      "নাটক": 9310,
      "##वती": 9311,
      "ಟಿ": 9312,
      "بادشاہ": 9313,
      "ముందు": 9314,
      "कल्पना": 9315,
      "Don": 9316,
      "##മോ": 9317,
      "subject": 9318,
      "फरक": 9319,
      "طرفان": 9320,
      "ಭಾರತದಲ್ಲಿ": 9321,
      "ਮਾਂ": 9322,
      "ग्रेगोरी": 9323,
      "##கிறது": 9324,
      "रेल": 9325,
      "चा": 9326,
      "बुद्ध": 9327,
      "##வோ": 9328,
      "பதிவு": 9329,
      "pradhan": 9330,
      "શ્રી": 9331,
      "बांग्लादेश": 9332,
      "##ுதல்": 9333,
      "religious": 9334,
      "ھيو": 9335,
      "അതിൽ": 9336,
      "Sunday": 9337,
      "பிறந்தார்": 9338,
      "पड़ा": 9339,
      "chief": 9340,
      "programs": 9341,
      "যাচ্ছে": 9342,
      "शास्त्रीय": 9343,
      "peace": 9344,
      "ಆತ": 9345,
      "1911": 9346,
      "Henry": 9347,
      "##est": 9348,
      "जीव": 9349,
      "Football": 9350,
      "ನಗರದ": 9351,
      "##िल": 9352,
      "workers": 9353,
      "എന്നിവർ": 9354,
      "##हरूका": 9355,
      "सवाल": 9356,
      "दुसऱ्या": 9357,
      "screen": 9358,
      "पुन्हा": 9359,
      "##ാൻ": 9360,
      "अनुमान": 9361,
      "कर्म": 9362,
      "##ોના": 9363,
      "بھر": 9364,
      "ചേർന്ന്": 9365,
      "##गत": 9366,
      "ذیل": 9367,
      "গড়": 9368,
      "##ாத": 9369,
      "ସରକାରୀ": 9370,
      "টা": 9371,
      "दिल": 9372,
      "mattu": 9373,
      "##ham": 9374,
      "hot": 9375,
      "speed": 9376,
      "ಎಂಬುದನ್ನು": 9377,
      "બંને": 9378,
      "##px": 9379,
      "செய்தார்": 9380,
      "എഫ്": 9381,
      "जम्मू": 9382,
      "दक्षिणी": 9383,
      "खाना": 9384,
      "##ಟ": 9385,
      "কৃষি": 9386,
      "سواءِ": 9387,
      "സ്വന്തം": 9388,
      "حد": 9389,
      "بقید": 9390,
      "ପ୍ରକାର": 9391,
      "ಅವಧಿಯಲ್ಲಿ": 9392,
      "ମୋଟ": 9393,
      "##ತೆಯ": 9394,
      "সিটি": 9395,
      "घंटे": 9396,
      "وطن": 9397,
      "പേർ": 9398,
      "থানার": 9399,
      "ڏئي": 9400,
      "उप": 9401,
      "એવું": 9402,
      "award": 9403,
      "جمع": 9404,
      "युग": 9405,
      "##वली": 9406,
      "##ंवर": 9407,
      "পা": 9408,
      "rajya": 9409,
      "Earth": 9410,
      "جدید": 9411,
      "ಸ್ವಲ್ಪ": 9412,
      "ജനസംഖ്യ": 9413,
      "uttar": 9414,
      "থাকতে": 9415,
      "novel": 9416,
      "ਖਿਡਾਰੀ": 9417,
      "##ള": 9418,
      "##லின்": 9419,
      "founded": 9420,
      "କିମ୍ବା": 9421,
      "காணப்படுகிறது": 9422,
      "##ತೆಯನ್ನು": 9423,
      "##மாகும்": 9424,
      "ଲକ୍ଷଣ": 9425,
      "##ણી": 9426,
      "நேரத்தில்": 9427,
      "मिलियन": 9428,
      "ప్లాంట్": 9429,
      "शास्त्र": 9430,
      "Festival": 9431,
      "dauraan": 9432,
      "किल्ला": 9433,
      "wide": 9434,
      "പക്ഷേ": 9435,
      "followed": 9436,
      "Order": 9437,
      "jaati": 9438,
      "ভর্তি": 9439,
      "actor": 9440,
      "feet": 9441,
      "दृष्टि": 9442,
      "नियुक्त": 9443,
      "தொலைவில்": 9444,
      "sources": 9445,
      "##ؤ": 9446,
      "ਅਵਾਰਡ": 9447,
      "ਮੂਲ": 9448,
      "കേന്ദ്ര": 9449,
      "জেনারেল": 9450,
      "વિકાસ": 9451,
      "provides": 9452,
      "sports": 9453,
      "simple": 9454,
      "Roman": 9455,
      "##ियो": 9456,
      "زندگي": 9457,
      "mujhe": 9458,
      "অত্যন্ত": 9459,
      "ಮತ್ತೊಂದು": 9460,
      "হওয়া": 9461,
      "হোৱাৰ": 9462,
      "সংগ্রহ": 9463,
      "##രുന്ന": 9464,
      "বসবাস": 9465,
      "આમ": 9466,
      "##लाल": 9467,
      "dilli": 9468,
      "थापा": 9469,
      "##ల్లో": 9470,
      "वितरण": 9471,
      "writer": 9472,
      "گورنر": 9473,
      "ಬ್ರಿಟಿಷ್": 9474,
      "marriage": 9475,
      "##िङ": 9476,
      "##ುದಿಲ್ಲ": 9477,
      "وسکونسن": 9478,
      "themselves": 9479,
      "Free": 9480,
      "successful": 9481,
      "##dar": 9482,
      "रोड": 9483,
      "##मान": 9484,
      "Smith": 9485,
      "டிசம்பர்": 9486,
      "##ിലെ": 9487,
      "gas": 9488,
      "##യൻ": 9489,
      "অধিকাংশ": 9490,
      "ହିନ୍ଦୀ": 9491,
      "Vol": 9492,
      "karata": 9493,
      "##gal": 9494,
      "નાના": 9495,
      "দীর্ঘ": 9496,
      "ref": 9497,
      "ਪੱਛਮੀ": 9498,
      "turn": 9499,
      "##તો": 9500,
      "ची": 9501,
      "pratham": 9502,
      "দ্রুত": 9503,
      "pages": 9504,
      "बारेमा": 9505,
      "चुकी": 9506,
      "met": 9507,
      "##வ": 9508,
      "##ಿರುವ": 9509,
      "महिना": 9510,
      "സര്": 9511,
      "##ندو": 9512,
      "##রি": 9513,
      "رکھنے": 9514,
      "##ੁ": 9515,
      "press": 9516,
      "ആൻഡ്": 9517,
      "একাধিক": 9518,
      "भाषानुबन्धाः": 9519,
      "ਸ਼ਾਮਿਲ": 9520,
      "നേടിയ": 9521,
      "ਜ਼ਿੰਦਗੀ": 9522,
      "मालिका": 9523,
      "department": 9524,
      "ഇതു": 9525,
      "करू": 9526,
      "பாடல்கள்": 9527,
      "अभिनेत्रीहरू": 9528,
      "નદી": 9529,
      "##ய்": 9530,
      "এরা": 9531,
      "army": 9532,
      "cover": 9533,
      "رکي": 9534,
      "##ale": 9535,
      "निकै": 9536,
      "ਪ੍ਰਮੁੱਖ": 9537,
      "বিভক্ত": 9538,
      "जनसांख्यिकी": 9539,
      "વિસ્તાર": 9540,
      "Hospital": 9541,
      "Her": 9542,
      "প্ৰধান": 9543,
      "##ज़": 9544,
      "प्रभा": 9545,
      "कदम": 9546,
      "فارسی": 9547,
      "map": 9548,
      "##رن": 9549,
      "విశాఖపట్నం": 9550,
      "पैसे": 9551,
      "حکم": 9552,
      "1910": 9553,
      "خلافت": 9554,
      "वास्तविक": 9555,
      "ਟੀ": 9556,
      "##ଥିବା": 9557,
      "ನಾವು": 9558,
      "சேர்ந்து": 9559,
      "##য়ার": 9560,
      "ନାମକ": 9561,
      "ਗੀਤ": 9562,
      "ইবনে": 9563,
      "Greek": 9564,
      "ধর্মীয়": 9565,
      "pradhanmantri": 9566,
      "##మ్మ": 9567,
      "இப்போது": 9568,
      "##னம்": 9569,
      "##ത്തിനും": 9570,
      "cities": 9571,
      "हेर्नुहोस": 9572,
      "cut": 9573,
      "پيش": 9574,
      "মসজিদ": 9575,
      "ഏറെ": 9576,
      "তারপর": 9577,
      "##انہ": 9578,
      "##यन": 9579,
      "زیر": 9580,
      "ବହି": 9581,
      "##ेश्वर": 9582,
      "active": 9583,
      "##பூர்": 9584,
      "##Y": 9585,
      "ಕರ್ನಾಟಕದ": 9586,
      "तिथि": 9587,
      "##pu": 9588,
      "उल्लेखनीय": 9589,
      "घेतले": 9590,
      "##ନା": 9591,
      "ಸಂಬಂಧಿಸಿದ": 9592,
      "যৌন": 9593,
      "পরীক্ষা": 9594,
      "ಬ್ಯಾಂಕ್": 9595,
      "अंतर": 9596,
      "પડે": 9597,
      "##సి": 9598,
      "magazine": 9599,
      "ইয়াত": 9600,
      "##ڪي": 9601,
      "नष्ट": 9602,
      "ارکان": 9603,
      "ଛୋଟ": 9604,
      "##ٕ": 9605,
      "ವಿಜ್ಞಾನ": 9606,
      "certain": 9607,
      "ذریعے": 9608,
      "ಆಗಿ": 9609,
      "politics": 9610,
      "सागर": 9611,
      "मानसिक": 9612,
      "মুক্ত": 9613,
      "aisa": 9614,
      "विद्यापीठ": 9615,
      "पाए": 9616,
      "ഉയർന്ന": 9617,
      "উদ্দেশ্যে": 9618,
      "होतात": 9619,
      "बनाई": 9620,
      "ملڪن": 9621,
      "বাংলার": 9622,
      "##hu": 9623,
      "பட்டம்": 9624,
      "गंभीर": 9625,
      "કહેવાય": 9626,
      "ಸೇವೆ": 9627,
      "ಐದು": 9628,
      "உலகின்": 9629,
      "##ಗಳೂ": 9630,
      "material": 9631,
      "புனித": 9632,
      "رياست": 9633,
      "دہائی": 9634,
      "signed": 9635,
      "தமிழர்": 9636,
      "قدر": 9637,
      "इस्लाम": 9638,
      "Studies": 9639,
      "திருவிழாவாக": 9640,
      "জার্মান": 9641,
      "শাহ": 9642,
      "table": 9643,
      "ٹیم": 9644,
      "சட்டம்": 9645,
      "साहित्यकार": 9646,
      "Ministry": 9647,
      "competition": 9648,
      "विश्लेषण": 9649,
      "പഴയ": 9650,
      "download": 9651,
      "ai": 9652,
      "কাজের": 9653,
      "నది": 9654,
      "کینیڈا": 9655,
      "ha": 9656,
      "ریلویز": 9657,
      "संपर्क": 9658,
      "##ाल": 9659,
      "##யைக்": 9660,
      "കൊല്ലം": 9661,
      "১৯৯১": 9662,
      "write": 9663,
      "इंडियन": 9664,
      "Let": 9665,
      "पुरवठा": 9666,
      "वित्तीय": 9667,
      "##िता": 9668,
      "##ਨੀ": 9669,
      "recent": 9670,
      "फॉर्म्युला": 9671,
      "اوڀر": 9672,
      "রেল": 9673,
[...]
